{
  "version": "1.0",
  "truncation": null,
  "padding": null,
  "added_tokens": [
    {
      "id": 0,
      "content": "[PAD]",
      "single_word": false,
      "lstrip": false,
      "rstrip": false,
      "normalized": false,
      "special": true
    },
    {
      "id": 1,
      "content": "[EOS]",
      "single_word": false,
      "lstrip": false,
      "rstrip": false,
      "normalized": false,
      "special": true
    },
    {
      "id": 2,
      "content": "[SEP]",
      "single_word": false,
      "lstrip": false,
      "rstrip": false,
      "normalized": false,
      "special": true
    },
    {
      "id": 3,
      "content": "[BOS]",
      "single_word": false,
      "lstrip": false,
      "rstrip": false,
      "normalized": false,
      "special": true
    },
    {
      "id": 4,
      "content": "[CLS]",
      "single_word": false,
      "lstrip": false,
      "rstrip": false,
      "normalized": false,
      "special": true
    },
    {
      "id": 5,
      "content": "[MASK]",
      "single_word": false,
      "lstrip": false,
      "rstrip": false,
      "normalized": false,
      "special": true
    },
    {
      "id": 6,
      "content": "[UNK]",
      "single_word": false,
      "lstrip": false,
      "rstrip": false,
      "normalized": false,
      "special": true
    },
    {
      "id": 29134,
      "content": "\t",
      "single_word": false,
      "lstrip": false,
      "rstrip": false,
      "normalized": true,
      "special": false
    }
  ],
  "normalizer": {
    "type": "Sequence",
    "normalizers": [
      {
        "type": "NFKC"
      }
    ]
  },
  "pre_tokenizer": {
    "type": "Sequence",
    "pretokenizers": [
      {
        "type": "Punctuation",
        "behavior": "Isolated"
      },
      {
        "type": "Digits",
        "individual_digits": true
      },
      {
        "type": "Metaspace",
        "replacement": "▁",
        "add_prefix_space": true
      }
    ]
  },
  "post_processor": null,
  "decoder": {
    "type": "Metaspace",
    "replacement": "▁",
    "add_prefix_space": true
  },
  "model": {
    "type": "BPE",
    "dropout": null,
    "unk_token": "[UNK]",
    "continuing_subword_prefix": null,
    "end_of_word_suffix": null,
    "fuse_unk": false,
    "byte_fallback": false,
    "vocab": {
      "[PAD]": 0,
      "[EOS]": 1,
      "[SEP]": 2,
      "[BOS]": 3,
      "[CLS]": 4,
      "[MASK]": 5,
      "[UNK]": 6,
      "\n": 7,
      "!": 8,
      "\"": 9,
      "#": 10,
      "$": 11,
      "%": 12,
      "&": 13,
      "'": 14,
      "(": 15,
      ")": 16,
      "*": 17,
      "+": 18,
      ",": 19,
      "-": 20,
      ".": 21,
      "/": 22,
      "0": 23,
      "1": 24,
      "2": 25,
      "3": 26,
      "4": 27,
      "5": 28,
      "6": 29,
      "7": 30,
      "8": 31,
      "9": 32,
      ":": 33,
      ";": 34,
      "<": 35,
      "=": 36,
      ">": 37,
      "?": 38,
      "@": 39,
      "A": 40,
      "B": 41,
      "C": 42,
      "D": 43,
      "E": 44,
      "F": 45,
      "G": 46,
      "H": 47,
      "I": 48,
      "J": 49,
      "K": 50,
      "L": 51,
      "M": 52,
      "N": 53,
      "O": 54,
      "P": 55,
      "Q": 56,
      "R": 57,
      "S": 58,
      "T": 59,
      "U": 60,
      "V": 61,
      "W": 62,
      "X": 63,
      "Y": 64,
      "Z": 65,
      "[": 66,
      "\\": 67,
      "]": 68,
      "^": 69,
      "_": 70,
      "`": 71,
      "a": 72,
      "b": 73,
      "c": 74,
      "d": 75,
      "e": 76,
      "f": 77,
      "g": 78,
      "h": 79,
      "i": 80,
      "j": 81,
      "k": 82,
      "l": 83,
      "m": 84,
      "n": 85,
      "o": 86,
      "p": 87,
      "q": 88,
      "r": 89,
      "s": 90,
      "t": 91,
      "u": 92,
      "v": 93,
      "w": 94,
      "x": 95,
      "y": 96,
      "z": 97,
      "{": 98,
      "|": 99,
      "}": 100,
      "~": 101,
      "": 102,
      "£": 103,
      "¤": 104,
      "¥": 105,
      "§": 106,
      "©": 107,
      "­": 108,
      "®": 109,
      "°": 110,
      "±": 111,
      "·": 112,
      "»": 113,
      "×": 114,
      "Ø": 115,
      "à": 116,
      "á": 117,
      "é": 118,
      "í": 119,
      "ò": 120,
      "ó": 121,
      "÷": 122,
      "ø": 123,
      "ù": 124,
      "ú": 125,
      "ü": 126,
      "ā": 127,
      "ě": 128,
      "ī": 129,
      "ň": 130,
      "ū": 131,
      "ǎ": 132,
      "ǐ": 133,
      "ǔ": 134,
      "ɑ": 135,
      "ˊ": 136,
      "̄": 137,
      "̅": 138,
      "̈": 139,
      "Γ": 140,
      "Θ": 141,
      "Π": 142,
      "Ρ": 143,
      "Φ": 144,
      "Ω": 145,
      "α": 146,
      "β": 147,
      "γ": 148,
      "δ": 149,
      "θ": 150,
      "λ": 151,
      "μ": 152,
      "ν": 153,
      "ξ": 154,
      "ο": 155,
      "π": 156,
      "σ": 157,
      "χ": 158,
      "ω": 159,
      "В": 160,
      "О": 161,
      "П": 162,
      "Р": 163,
      "Т": 164,
      "У": 165,
      "Ф": 166,
      "Ч": 167,
      "Ъ": 168,
      "Ы": 169,
      "Ь": 170,
      "Ю": 171,
      "Я": 172,
      "к": 173,
      "​": 174,
      "‎": 175,
      "–": 176,
      "—": 177,
      "―": 178,
      "‖": 179,
      "‘": 180,
      "’": 181,
      "“": 182,
      "”": 183,
      "•": 184,
      "‧": 185,
      "‰": 186,
      "′": 187,
      "※": 188,
      "⁄": 189,
      "←": 190,
      "↑": 191,
      "→": 192,
      "↓": 193,
      "∈": 194,
      "∏": 195,
      "∑": 196,
      "∕": 197,
      "√": 198,
      "∝": 199,
      "∞": 200,
      "∠": 201,
      "∥": 202,
      "∩": 203,
      "∪": 204,
      "∮": 205,
      "∴": 206,
      "∵": 207,
      "∶": 208,
      "∷": 209,
      "∼": 210,
      "≈": 211,
      "≌": 212,
      "≠": 213,
      "≡": 214,
      "≤": 215,
      "≥": 216,
      "≦": 217,
      "≧": 218,
      "⊙": 219,
      "⊥": 220,
      "─": 221,
      "━": 222,
      "┄": 223,
      "┅": 224,
      "┆": 225,
      "┉": 226,
      "┏": 227,
      "└": 228,
      "┕": 229,
      "┥": 230,
      "┨": 231,
      "┬": 232,
      "┭": 233,
      "┱": 234,
      "╚": 235,
      "╤": 236,
      "▁": 237,
      "▂": 238,
      "■": 239,
      "□": 240,
      "▲": 241,
      "△": 242,
      "▶": 243,
      "▼": 244,
      "▽": 245,
      "◆": 246,
      "◇": 247,
      "○": 248,
      "◎": 249,
      "●": 250,
      "★": 251,
      "☆": 252,
      "☺": 253,
      "♂": 254,
      "♡": 255,
      "❤": 256,
      "➹": 257,
      "⺗": 258,
      "、": 259,
      "。": 260,
      "〃": 261,
      "々": 262,
      "〈": 263,
      "〉": 264,
      "《": 265,
      "》": 266,
      "「": 267,
      "」": 268,
      "『": 269,
      "』": 270,
      "【": 271,
      "】": 272,
      "〓": 273,
      "〔": 274,
      "〕": 275,
      "〖": 276,
      "〗": 277,
      "〜": 278,
      "ぃ": 279,
      "う": 280,
      "お": 281,
      "か": 282,
      "き": 283,
      "く": 284,
      "け": 285,
      "こ": 286,
      "さ": 287,
      "ざ": 288,
      "し": 289,
      "じ": 290,
      "す": 291,
      "ず": 292,
      "そ": 293,
      "た": 294,
      "だ": 295,
      "ち": 296,
      "っ": 297,
      "て": 298,
      "で": 299,
      "と": 300,
      "ど": 301,
      "に": 302,
      "の": 303,
      "は": 304,
      "び": 305,
      "ま": 306,
      "め": 307,
      "る": 308,
      "ろ": 309,
      "ん": 310,
      "ゞ": 311,
      "ァ": 312,
      "ィ": 313,
      "キ": 314,
      "ゲ": 315,
      "ス": 316,
      "ダ": 317,
      "チ": 318,
      "ヂ": 319,
      "ツ": 320,
      "ド": 321,
      "ナ": 322,
      "ハ": 323,
      "バ": 324,
      "ピ": 325,
      "フ": 326,
      "ボ": 327,
      "ミ": 328,
      "ャ": 329,
      "ル": 330,
      "ン": 331,
      "ー": 332,
      "ㄅ": 333,
      "ㄆ": 334,
      "ㄇ": 335,
      "ㄈ": 336,
      "ㄉ": 337,
      "ㄊ": 338,
      "ㄍ": 339,
      "ㄔ": 340,
      "ㄖ": 341,
      "ㄗ": 342,
      "ㄘ": 343,
      "ㄚ": 344,
      "ㄠ": 345,
      "ㄧ": 346,
      "㪍": 347,
      "䋱": 348,
      "䓤": 349,
      "一": 350,
      "丁": 351,
      "七": 352,
      "万": 353,
      "丈": 354,
      "三": 355,
      "上": 356,
      "下": 357,
      "不": 358,
      "与": 359,
      "丐": 360,
      "丑": 361,
      "专": 362,
      "且": 363,
      "丕": 364,
      "世": 365,
      "丘": 366,
      "丙": 367,
      "业": 368,
      "丛": 369,
      "东": 370,
      "丝": 371,
      "丞": 372,
      "丢": 373,
      "两": 374,
      "严": 375,
      "並": 376,
      "丧": 377,
      "丨": 378,
      "个": 379,
      "丫": 380,
      "中": 381,
      "丰": 382,
      "串": 383,
      "临": 384,
      "丶": 385,
      "丸": 386,
      "丹": 387,
      "为": 388,
      "主": 389,
      "丽": 390,
      "举": 391,
      "乃": 392,
      "久": 393,
      "乇": 394,
      "么": 395,
      "义": 396,
      "之": 397,
      "乌": 398,
      "乍": 399,
      "乎": 400,
      "乏": 401,
      "乐": 402,
      "乒": 403,
      "乓": 404,
      "乔": 405,
      "乖": 406,
      "乘": 407,
      "乙": 408,
      "乜": 409,
      "九": 410,
      "乞": 411,
      "也": 412,
      "习": 413,
      "乡": 414,
      "书": 415,
      "乩": 416,
      "买": 417,
      "乱": 418,
      "乳": 419,
      "乹": 420,
      "乾": 421,
      "亂": 422,
      "了": 423,
      "予": 424,
      "争": 425,
      "事": 426,
      "二": 427,
      "亍": 428,
      "于": 429,
      "亏": 430,
      "云": 431,
      "互": 432,
      "亓": 433,
      "五": 434,
      "井": 435,
      "亘": 436,
      "亚": 437,
      "些": 438,
      "亟": 439,
      "亡": 440,
      "亢": 441,
      "交": 442,
      "亥": 443,
      "亦": 444,
      "产": 445,
      "亨": 446,
      "亩": 447,
      "享": 448,
      "京": 449,
      "亭": 450,
      "亮": 451,
      "亲": 452,
      "亳": 453,
      "亵": 454,
      "人": 455,
      "亻": 456,
      "亾": 457,
      "亿": 458,
      "什": 459,
      "仁": 460,
      "仃": 461,
      "仄": 462,
      "仅": 463,
      "仆": 464,
      "仇": 465,
      "今": 466,
      "介": 467,
      "仍": 468,
      "从": 469,
      "仑": 470,
      "仓": 471,
      "仔": 472,
      "仕": 473,
      "他": 474,
      "仗": 475,
      "付": 476,
      "仙": 477,
      "仝": 478,
      "仞": 479,
      "仟": 480,
      "仡": 481,
      "代": 482,
      "令": 483,
      "以": 484,
      "仨": 485,
      "仪": 486,
      "们": 487,
      "仰": 488,
      "仲": 489,
      "仳": 490,
      "仵": 491,
      "件": 492,
      "价": 493,
      "任": 494,
      "份": 495,
      "仿": 496,
      "企": 497,
      "伉": 498,
      "伊": 499,
      "伍": 500,
      "伎": 501,
      "伏": 502,
      "伐": 503,
      "休": 504,
      "众": 505,
      "优": 506,
      "伙": 507,
      "会": 508,
      "伞": 509,
      "伟": 510,
      "传": 511,
      "伢": 512,
      "伤": 513,
      "伥": 514,
      "伦": 515,
      "伧": 516,
      "伪": 517,
      "伫": 518,
      "伯": 519,
      "估": 520,
      "伲": 521,
      "伴": 522,
      "伶": 523,
      "伸": 524,
      "伺": 525,
      "似": 526,
      "伽": 527,
      "佀": 528,
      "佃": 529,
      "但": 530,
      "佈": 531,
      "位": 532,
      "低": 533,
      "住": 534,
      "佐": 535,
      "佑": 536,
      "体": 537,
      "何": 538,
      "佗": 539,
      "佘": 540,
      "余": 541,
      "佚": 542,
      "佛": 543,
      "作": 544,
      "佝": 545,
      "佞": 546,
      "佟": 547,
      "你": 548,
      "佣": 549,
      "佤": 550,
      "佥": 551,
      "佩": 552,
      "佬": 553,
      "佯": 554,
      "佰": 555,
      "佳": 556,
      "佶": 557,
      "佻": 558,
      "佼": 559,
      "使": 560,
      "侃": 561,
      "侄": 562,
      "來": 563,
      "侈": 564,
      "侉": 565,
      "例": 566,
      "侍": 567,
      "侏": 568,
      "侑": 569,
      "侗": 570,
      "供": 571,
      "依": 572,
      "侠": 573,
      "侣": 574,
      "侥": 575,
      "侦": 576,
      "侧": 577,
      "侨": 578,
      "侩": 579,
      "侪": 580,
      "侬": 581,
      "侮": 582,
      "侯": 583,
      "侵": 584,
      "便": 585,
      "促": 586,
      "俄": 587,
      "俅": 588,
      "俊": 589,
      "俎": 590,
      "俏": 591,
      "俐": 592,
      "俑": 593,
      "俗": 594,
      "俘": 595,
      "俚": 596,
      "俜": 597,
      "保": 598,
      "俞": 599,
      "俟": 600,
      "俠": 601,
      "信": 602,
      "俣": 603,
      "俦": 604,
      "俨": 605,
      "俩": 606,
      "俪": 607,
      "俬": 608,
      "俭": 609,
      "修": 610,
      "俯": 611,
      "俱": 612,
      "俳": 613,
      "俸": 614,
      "俺": 615,
      "俾": 616,
      "個": 617,
      "倌": 618,
      "倍": 619,
      "倏": 620,
      "們": 621,
      "倒": 622,
      "倔": 623,
      "倘": 624,
      "候": 625,
      "倚": 626,
      "倜": 627,
      "借": 628,
      "倡": 629,
      "倥": 630,
      "倦": 631,
      "倨": 632,
      "倩": 633,
      "倪": 634,
      "倬": 635,
      "倭": 636,
      "倳": 637,
      "债": 638,
      "值": 639,
      "倾": 640,
      "偃": 641,
      "假": 642,
      "偈": 643,
      "偌": 644,
      "偎": 645,
      "偏": 646,
      "偕": 647,
      "做": 648,
      "停": 649,
      "健": 650,
      "偬": 651,
      "偶": 652,
      "偷": 653,
      "偻": 654,
      "偾": 655,
      "偿": 656,
      "傀": 657,
      "傅": 658,
      "傈": 659,
      "傍": 660,
      "傣": 661,
      "傥": 662,
      "傧": 663,
      "储": 664,
      "傩": 665,
      "催": 666,
      "傲": 667,
      "傷": 668,
      "傻": 669,
      "像": 670,
      "僖": 671,
      "僚": 672,
      "僧": 673,
      "僭": 674,
      "僮": 675,
      "僵": 676,
      "僻": 677,
      "儆": 678,
      "儇": 679,
      "儋": 680,
      "儒": 681,
      "儘": 682,
      "儡": 683,
      "儿": 684,
      "兀": 685,
      "允": 686,
      "元": 687,
      "兄": 688,
      "充": 689,
      "兆": 690,
      "先": 691,
      "光": 692,
      "克": 693,
      "免": 694,
      "兑": 695,
      "兔": 696,
      "兕": 697,
      "兖": 698,
      "党": 699,
      "兜": 700,
      "兢": 701,
      "入": 702,
      "內": 703,
      "全": 704,
      "兩": 705,
      "八": 706,
      "公": 707,
      "六": 708,
      "兮": 709,
      "兰": 710,
      "共": 711,
      "兲": 712,
      "关": 713,
      "兴": 714,
      "兵": 715,
      "其": 716,
      "具": 717,
      "典": 718,
      "兹": 719,
      "养": 720,
      "兼": 721,
      "兽": 722,
      "冀": 723,
      "内": 724,
      "冇": 725,
      "冈": 726,
      "冉": 727,
      "冊": 728,
      "册": 729,
      "再": 730,
      "冒": 731,
      "冕": 732,
      "冗": 733,
      "写": 734,
      "军": 735,
      "农": 736,
      "冠": 737,
      "冢": 738,
      "冤": 739,
      "冥": 740,
      "冬": 741,
      "冯": 742,
      "冰": 743,
      "冲": 744,
      "决": 745,
      "况": 746,
      "冶": 747,
      "冷": 748,
      "冻": 749,
      "冼": 750,
      "冽": 751,
      "净": 752,
      "凄": 753,
      "准": 754,
      "凇": 755,
      "凉": 756,
      "凊": 757,
      "凋": 758,
      "凌": 759,
      "减": 760,
      "凑": 761,
      "凛": 762,
      "凝": 763,
      "几": 764,
      "凡": 765,
      "凤": 766,
      "凫": 767,
      "凭": 768,
      "凯": 769,
      "凰": 770,
      "凳": 771,
      "凶": 772,
      "凸": 773,
      "凹": 774,
      "出": 775,
      "击": 776,
      "凼": 777,
      "函": 778,
      "凿": 779,
      "刀": 780,
      "刁": 781,
      "刂": 782,
      "刃": 783,
      "分": 784,
      "切": 785,
      "刊": 786,
      "刍": 787,
      "刎": 788,
      "刑": 789,
      "划": 790,
      "刖": 791,
      "列": 792,
      "刘": 793,
      "则": 794,
      "刚": 795,
      "创": 796,
      "初": 797,
      "删": 798,
      "判": 799,
      "別": 800,
      "刨": 801,
      "利": 802,
      "刪": 803,
      "别": 804,
      "刮": 805,
      "到": 806,
      "制": 807,
      "刷": 808,
      "券": 809,
      "刹": 810,
      "刺": 811,
      "刻": 812,
      "刽": 813,
      "刿": 814,
      "剀": 815,
      "剁": 816,
      "剂": 817,
      "剃": 818,
      "則": 819,
      "削": 820,
      "剌": 821,
      "前": 822,
      "剐": 823,
      "剑": 824,
      "剔": 825,
      "剖": 826,
      "剜": 827,
      "剥": 828,
      "剧": 829,
      "剩": 830,
      "剪": 831,
      "副": 832,
      "割": 833,
      "剽": 834,
      "剿": 835,
      "劂": 836,
      "劈": 837,
      "劓": 838,
      "力": 839,
      "劝": 840,
      "办": 841,
      "功": 842,
      "加": 843,
      "务": 844,
      "劣": 845,
      "动": 846,
      "助": 847,
      "努": 848,
      "劫": 849,
      "劬": 850,
      "励": 851,
      "劲": 852,
      "劳": 853,
      "劵": 854,
      "劾": 855,
      "势": 856,
      "勃": 857,
      "勇": 858,
      "勉": 859,
      "勋": 860,
      "勐": 861,
      "勒": 862,
      "動": 863,
      "勖": 864,
      "勘": 865,
      "募": 866,
      "勤": 867,
      "勰": 868,
      "勺": 869,
      "勾": 870,
      "勿": 871,
      "匀": 872,
      "包": 873,
      "匆": 874,
      "匈": 875,
      "匍": 876,
      "匐": 877,
      "匕": 878,
      "化": 879,
      "北": 880,
      "匙": 881,
      "匚": 882,
      "匝": 883,
      "匠": 884,
      "匡": 885,
      "匣": 886,
      "匦": 887,
      "匪": 888,
      "匮": 889,
      "匹": 890,
      "区": 891,
      "医": 892,
      "匾": 893,
      "匿": 894,
      "區": 895,
      "十": 896,
      "千": 897,
      "卅": 898,
      "升": 899,
      "午": 900,
      "卉": 901,
      "半": 902,
      "华": 903,
      "协": 904,
      "卑": 905,
      "卒": 906,
      "卓": 907,
      "单": 908,
      "卖": 909,
      "南": 910,
      "博": 911,
      "卜": 912,
      "卝": 913,
      "卞": 914,
      "卟": 915,
      "占": 916,
      "卡": 917,
      "卢": 918,
      "卣": 919,
      "卤": 920,
      "卦": 921,
      "卧": 922,
      "卫": 923,
      "卮": 924,
      "卯": 925,
      "印": 926,
      "危": 927,
      "即": 928,
      "却": 929,
      "卵": 930,
      "卷": 931,
      "卸": 932,
      "卺": 933,
      "卿": 934,
      "厂": 935,
      "厄": 936,
      "厅": 937,
      "历": 938,
      "厉": 939,
      "厊": 940,
      "压": 941,
      "厌": 942,
      "厍": 943,
      "厕": 944,
      "厘": 945,
      "厚": 946,
      "厝": 947,
      "原": 948,
      "厢": 949,
      "厣": 950,
      "厥": 951,
      "厦": 952,
      "厨": 953,
      "厩": 954,
      "厭": 955,
      "厮": 956,
      "去": 957,
      "县": 958,
      "叁": 959,
      "参": 960,
      "又": 961,
      "叉": 962,
      "及": 963,
      "友": 964,
      "双": 965,
      "反": 966,
      "发": 967,
      "叔": 968,
      "取": 969,
      "受": 970,
      "变": 971,
      "叙": 972,
      "叛": 973,
      "叟": 974,
      "叠": 975,
      "口": 976,
      "古": 977,
      "句": 978,
      "另": 979,
      "叨": 980,
      "叩": 981,
      "只": 982,
      "叫": 983,
      "召": 984,
      "叭": 985,
      "叮": 986,
      "可": 987,
      "台": 988,
      "叱": 989,
      "史": 990,
      "右": 991,
      "叵": 992,
      "叶": 993,
      "号": 994,
      "司": 995,
      "叹": 996,
      "叻": 997,
      "叼": 998,
      "叽": 999,
      "吁": 1000,
      "吃": 1001,
      "各": 1002,
      "吆": 1003,
      "合": 1004,
      "吉": 1005,
      "吊": 1006,
      "同": 1007,
      "名": 1008,
      "后": 1009,
      "吏": 1010,
      "吐": 1011,
      "向": 1012,
      "吒": 1013,
      "吓": 1014,
      "吕": 1015,
      "吖": 1016,
      "吗": 1017,
      "君": 1018,
      "吝": 1019,
      "吞": 1020,
      "吟": 1021,
      "吠": 1022,
      "吡": 1023,
      "吣": 1024,
      "否": 1025,
      "吧": 1026,
      "吨": 1027,
      "吩": 1028,
      "含": 1029,
      "听": 1030,
      "吭": 1031,
      "吮": 1032,
      "启": 1033,
      "吱": 1034,
      "吲": 1035,
      "吴": 1036,
      "吵": 1037,
      "吸": 1038,
      "吹": 1039,
      "吻": 1040,
      "吼": 1041,
      "吾": 1042,
      "呀": 1043,
      "呃": 1044,
      "呆": 1045,
      "呈": 1046,
      "告": 1047,
      "呋": 1048,
      "呐": 1049,
      "呒": 1050,
      "呓": 1051,
      "呔": 1052,
      "呕": 1053,
      "呗": 1054,
      "员": 1055,
      "呛": 1056,
      "呜": 1057,
      "呢": 1058,
      "呤": 1059,
      "呦": 1060,
      "周": 1061,
      "呱": 1062,
      "呲": 1063,
      "味": 1064,
      "呵": 1065,
      "呶": 1066,
      "呷": 1067,
      "呸": 1068,
      "呻": 1069,
      "呼": 1070,
      "命": 1071,
      "咀": 1072,
      "咁": 1073,
      "咂": 1074,
      "咄": 1075,
      "咆": 1076,
      "咋": 1077,
      "和": 1078,
      "咎": 1079,
      "咏": 1080,
      "咐": 1081,
      "咒": 1082,
      "咔": 1083,
      "咕": 1084,
      "咖": 1085,
      "咙": 1086,
      "咚": 1087,
      "咛": 1088,
      "咝": 1089,
      "咣": 1090,
      "咤": 1091,
      "咦": 1092,
      "咧": 1093,
      "咨": 1094,
      "咩": 1095,
      "咪": 1096,
      "咫": 1097,
      "咬": 1098,
      "咯": 1099,
      "咱": 1100,
      "咳": 1101,
      "咸": 1102,
      "咻": 1103,
      "咽": 1104,
      "咿": 1105,
      "哀": 1106,
      "品": 1107,
      "哂": 1108,
      "哄": 1109,
      "哆": 1110,
      "哇": 1111,
      "哈": 1112,
      "哉": 1113,
      "哌": 1114,
      "响": 1115,
      "哎": 1116,
      "哐": 1117,
      "哑": 1118,
      "哒": 1119,
      "哓": 1120,
      "哔": 1121,
      "哕": 1122,
      "哗": 1123,
      "哙": 1124,
      "哚": 1125,
      "哝": 1126,
      "哞": 1127,
      "哟": 1128,
      "哥": 1129,
      "哦": 1130,
      "哧": 1131,
      "哨": 1132,
      "哩": 1133,
      "哪": 1134,
      "哭": 1135,
      "哮": 1136,
      "哲": 1137,
      "哺": 1138,
      "哼": 1139,
      "哽": 1140,
      "唁": 1141,
      "唆": 1142,
      "唇": 1143,
      "唉": 1144,
      "唏": 1145,
      "唐": 1146,
      "唑": 1147,
      "唔": 1148,
      "唛": 1149,
      "唠": 1150,
      "唢": 1151,
      "唤": 1152,
      "唧": 1153,
      "唬": 1154,
      "售": 1155,
      "唯": 1156,
      "唰": 1157,
      "唱": 1158,
      "唳": 1159,
      "唷": 1160,
      "唾": 1161,
      "唿": 1162,
      "啁": 1163,
      "啃": 1164,
      "啄": 1165,
      "商": 1166,
      "啉": 1167,
      "啊": 1168,
      "啌": 1169,
      "問": 1170,
      "啐": 1171,
      "啕": 1172,
      "啖": 1173,
      "啜": 1174,
      "啡": 1175,
      "啤": 1176,
      "啥": 1177,
      "啦": 1178,
      "啧": 1179,
      "啪": 1180,
      "啫": 1181,
      "啬": 1182,
      "啭": 1183,
      "啮": 1184,
      "啰": 1185,
      "啵": 1186,
      "啶": 1187,
      "啷": 1188,
      "啸": 1189,
      "啻": 1190,
      "啼": 1191,
      "啾": 1192,
      "喀": 1193,
      "喁": 1194,
      "喂": 1195,
      "喃": 1196,
      "善": 1197,
      "喇": 1198,
      "喉": 1199,
      "喊": 1200,
      "喋": 1201,
      "喏": 1202,
      "喑": 1203,
      "喔": 1204,
      "喘": 1205,
      "喙": 1206,
      "喜": 1207,
      "喝": 1208,
      "喟": 1209,
      "喧": 1210,
      "喱": 1211,
      "喲": 1212,
      "喳": 1213,
      "喵": 1214,
      "喷": 1215,
      "喹": 1216,
      "喻": 1217,
      "喽": 1218,
      "喾": 1219,
      "嗄": 1220,
      "嗅": 1221,
      "嗉": 1222,
      "嗌": 1223,
      "嗍": 1224,
      "嗎": 1225,
      "嗐": 1226,
      "嗑": 1227,
      "嗒": 1228,
      "嗓": 1229,
      "嗔": 1230,
      "嗖": 1231,
      "嗜": 1232,
      "嗝": 1233,
      "嗟": 1234,
      "嗡": 1235,
      "嗣": 1236,
      "嗤": 1237,
      "嗥": 1238,
      "嗦": 1239,
      "嗨": 1240,
      "嗪": 1241,
      "嗫": 1242,
      "嗬": 1243,
      "嗯": 1244,
      "嗲": 1245,
      "嗳": 1246,
      "嗵": 1247,
      "嗷": 1248,
      "嗼": 1249,
      "嗽": 1250,
      "嘀": 1251,
      "嘈": 1252,
      "嘉": 1253,
      "嘌": 1254,
      "嘎": 1255,
      "嘏": 1256,
      "嘘": 1257,
      "嘛": 1258,
      "嘞": 1259,
      "嘟": 1260,
      "嘣": 1261,
      "嘤": 1262,
      "嘧": 1263,
      "嘬": 1264,
      "嘭": 1265,
      "嘱": 1266,
      "嘲": 1267,
      "嘴": 1268,
      "嘶": 1269,
      "嘹": 1270,
      "嘻": 1271,
      "嘿": 1272,
      "噌": 1273,
      "噎": 1274,
      "噔": 1275,
      "噗": 1276,
      "噘": 1277,
      "噙": 1278,
      "噜": 1279,
      "噢": 1280,
      "噤": 1281,
      "器": 1282,
      "噩": 1283,
      "噪": 1284,
      "噫": 1285,
      "噬": 1286,
      "噱": 1287,
      "噶": 1288,
      "噻": 1289,
      "噼": 1290,
      "嚎": 1291,
      "嚏": 1292,
      "嚓": 1293,
      "嚣": 1294,
      "嚯": 1295,
      "嚷": 1296,
      "嚼": 1297,
      "囊": 1298,
      "囔": 1299,
      "囖": 1300,
      "囗": 1301,
      "囚": 1302,
      "四": 1303,
      "回": 1304,
      "囟": 1305,
      "因": 1306,
      "囡": 1307,
      "团": 1308,
      "囤": 1309,
      "囧": 1310,
      "囫": 1311,
      "园": 1312,
      "困": 1313,
      "囱": 1314,
      "围": 1315,
      "囵": 1316,
      "囹": 1317,
      "固": 1318,
      "国": 1319,
      "图": 1320,
      "囿": 1321,
      "圃": 1322,
      "圄": 1323,
      "圆": 1324,
      "圈": 1325,
      "圉": 1326,
      "圍": 1327,
      "圜": 1328,
      "土": 1329,
      "圣": 1330,
      "在": 1331,
      "圩": 1332,
      "圪": 1333,
      "圬": 1334,
      "圭": 1335,
      "地": 1336,
      "圳": 1337,
      "场": 1338,
      "圾": 1339,
      "址": 1340,
      "坂": 1341,
      "均": 1342,
      "坊": 1343,
      "坍": 1344,
      "坎": 1345,
      "坏": 1346,
      "坐": 1347,
      "坑": 1348,
      "块": 1349,
      "坚": 1350,
      "坛": 1351,
      "坝": 1352,
      "坞": 1353,
      "坟": 1354,
      "坠": 1355,
      "坡": 1356,
      "坤": 1357,
      "坦": 1358,
      "坨": 1359,
      "坩": 1360,
      "坪": 1361,
      "坯": 1362,
      "坳": 1363,
      "坷": 1364,
      "坻": 1365,
      "坼": 1366,
      "垂": 1367,
      "垃": 1368,
      "垄": 1369,
      "垅": 1370,
      "垉": 1371,
      "型": 1372,
      "垒": 1373,
      "垓": 1374,
      "垛": 1375,
      "垟": 1376,
      "垠": 1377,
      "垡": 1378,
      "垢": 1379,
      "垣": 1380,
      "垦": 1381,
      "垩": 1382,
      "垫": 1383,
      "垭": 1384,
      "垮": 1385,
      "垳": 1386,
      "垴": 1387,
      "埂": 1388,
      "埃": 1389,
      "埅": 1390,
      "埋": 1391,
      "城": 1392,
      "埔": 1393,
      "埕": 1394,
      "埙": 1395,
      "埚": 1396,
      "域": 1397,
      "埠": 1398,
      "埭": 1399,
      "埰": 1400,
      "埸": 1401,
      "培": 1402,
      "基": 1403,
      "埽": 1404,
      "堀": 1405,
      "堂": 1406,
      "堆": 1407,
      "堇": 1408,
      "堋": 1409,
      "堑": 1410,
      "堕": 1411,
      "堞": 1412,
      "堡": 1413,
      "堤": 1414,
      "堪": 1415,
      "堰": 1416,
      "報": 1417,
      "場": 1418,
      "堵": 1419,
      "塌": 1420,
      "塍": 1421,
      "塑": 1422,
      "塔": 1423,
      "塘": 1424,
      "塞": 1425,
      "塥": 1426,
      "填": 1427,
      "塬": 1428,
      "塾": 1429,
      "境": 1430,
      "墅": 1431,
      "墉": 1432,
      "墒": 1433,
      "墓": 1434,
      "墙": 1435,
      "墛": 1436,
      "增": 1437,
      "墟": 1438,
      "墨": 1439,
      "墩": 1440,
      "墼": 1441,
      "壁": 1442,
      "壅": 1443,
      "壑": 1444,
      "壕": 1445,
      "壤": 1446,
      "士": 1447,
      "壬": 1448,
      "壮": 1449,
      "声": 1450,
      "壳": 1451,
      "壶": 1452,
      "壹": 1453,
      "壺": 1454,
      "夃": 1455,
      "处": 1456,
      "备": 1457,
      "复": 1458,
      "夏": 1459,
      "夔": 1460,
      "夕": 1461,
      "外": 1462,
      "夙": 1463,
      "多": 1464,
      "夜": 1465,
      "够": 1466,
      "夥": 1467,
      "大": 1468,
      "天": 1469,
      "太": 1470,
      "夫": 1471,
      "夭": 1472,
      "央": 1473,
      "夯": 1474,
      "失": 1475,
      "头": 1476,
      "夷": 1477,
      "夸": 1478,
      "夹": 1479,
      "夺": 1480,
      "奁": 1481,
      "奂": 1482,
      "奄": 1483,
      "奇": 1484,
      "奈": 1485,
      "奉": 1486,
      "奋": 1487,
      "奎": 1488,
      "奏": 1489,
      "契": 1490,
      "奔": 1491,
      "奕": 1492,
      "奖": 1493,
      "套": 1494,
      "奘": 1495,
      "奚": 1496,
      "奠": 1497,
      "奢": 1498,
      "奥": 1499,
      "女": 1500,
      "奴": 1501,
      "奶": 1502,
      "奸": 1503,
      "她": 1504,
      "好": 1505,
      "妁": 1506,
      "如": 1507,
      "妃": 1508,
      "妄": 1509,
      "妆": 1510,
      "妇": 1511,
      "妈": 1512,
      "妊": 1513,
      "妍": 1514,
      "妒": 1515,
      "妓": 1516,
      "妖": 1517,
      "妙": 1518,
      "妞": 1519,
      "妣": 1520,
      "妤": 1521,
      "妥": 1522,
      "妨": 1523,
      "妩": 1524,
      "妪": 1525,
      "妫": 1526,
      "妮": 1527,
      "妯": 1528,
      "妲": 1529,
      "妳": 1530,
      "妹": 1531,
      "妻": 1532,
      "妾": 1533,
      "姆": 1534,
      "姊": 1535,
      "始": 1536,
      "姐": 1537,
      "姑": 1538,
      "姒": 1539,
      "姓": 1540,
      "委": 1541,
      "姗": 1542,
      "姘": 1543,
      "姚": 1544,
      "姜": 1545,
      "姝": 1546,
      "姠": 1547,
      "姣": 1548,
      "姥": 1549,
      "姨": 1550,
      "姬": 1551,
      "姹": 1552,
      "姻": 1553,
      "姿": 1554,
      "威": 1555,
      "娃": 1556,
      "娄": 1557,
      "娅": 1558,
      "娆": 1559,
      "娇": 1560,
      "娈": 1561,
      "娌": 1562,
      "娑": 1563,
      "娓": 1564,
      "娘": 1565,
      "娜": 1566,
      "娟": 1567,
      "娠": 1568,
      "娣": 1569,
      "娥": 1570,
      "娩": 1571,
      "娬": 1572,
      "娭": 1573,
      "娱": 1574,
      "娲": 1575,
      "娴": 1576,
      "娶": 1577,
      "娼": 1578,
      "婀": 1579,
      "婆": 1580,
      "婉": 1581,
      "婊": 1582,
      "婕": 1583,
      "婚": 1584,
      "婢": 1585,
      "婧": 1586,
      "婪": 1587,
      "婬": 1588,
      "婴": 1589,
      "婵": 1590,
      "婶": 1591,
      "婷": 1592,
      "婺": 1593,
      "婿": 1594,
      "媒": 1595,
      "媚": 1596,
      "媛": 1597,
      "媪": 1598,
      "媲": 1599,
      "媳": 1600,
      "媽": 1601,
      "媾": 1602,
      "嫁": 1603,
      "嫂": 1604,
      "嫃": 1605,
      "嫉": 1606,
      "嫌": 1607,
      "嫒": 1608,
      "嫔": 1609,
      "嫖": 1610,
      "嫘": 1611,
      "嫠": 1612,
      "嫡": 1613,
      "嫣": 1614,
      "嫦": 1615,
      "嫩": 1616,
      "嫫": 1617,
      "嬉": 1618,
      "嬖": 1619,
      "嬗": 1620,
      "嬲": 1621,
      "嬴": 1622,
      "嬷": 1623,
      "孀": 1624,
      "子": 1625,
      "孑": 1626,
      "孒": 1627,
      "孓": 1628,
      "孔": 1629,
      "孕": 1630,
      "字": 1631,
      "存": 1632,
      "孙": 1633,
      "孚": 1634,
      "孛": 1635,
      "孜": 1636,
      "孝": 1637,
      "孟": 1638,
      "孢": 1639,
      "季": 1640,
      "孤": 1641,
      "学": 1642,
      "孧": 1643,
      "孩": 1644,
      "孪": 1645,
      "孬": 1646,
      "孰": 1647,
      "孱": 1648,
      "孳": 1649,
      "孵": 1650,
      "學": 1651,
      "孺": 1652,
      "孽": 1653,
      "宁": 1654,
      "它": 1655,
      "宄": 1656,
      "宅": 1657,
      "宇": 1658,
      "守": 1659,
      "安": 1660,
      "宋": 1661,
      "完": 1662,
      "宏": 1663,
      "宓": 1664,
      "宕": 1665,
      "宗": 1666,
      "官": 1667,
      "宙": 1668,
      "定": 1669,
      "宛": 1670,
      "宜": 1671,
      "宝": 1672,
      "实": 1673,
      "宠": 1674,
      "审": 1675,
      "客": 1676,
      "宣": 1677,
      "室": 1678,
      "宥": 1679,
      "宦": 1680,
      "宪": 1681,
      "宫": 1682,
      "宰": 1683,
      "害": 1684,
      "宴": 1685,
      "宵": 1686,
      "家": 1687,
      "宸": 1688,
      "容": 1689,
      "宽": 1690,
      "宾": 1691,
      "宿": 1692,
      "寂": 1693,
      "寄": 1694,
      "寅": 1695,
      "密": 1696,
      "寇": 1697,
      "富": 1698,
      "寐": 1699,
      "寒": 1700,
      "寓": 1701,
      "寝": 1702,
      "寞": 1703,
      "察": 1704,
      "寡": 1705,
      "寤": 1706,
      "寥": 1707,
      "實": 1708,
      "寨": 1709,
      "寮": 1710,
      "寰": 1711,
      "寶": 1712,
      "寸": 1713,
      "对": 1714,
      "寺": 1715,
      "寻": 1716,
      "导": 1717,
      "対": 1718,
      "寿": 1719,
      "封": 1720,
      "射": 1721,
      "将": 1722,
      "將": 1723,
      "專": 1724,
      "尉": 1725,
      "尊": 1726,
      "尋": 1727,
      "對": 1728,
      "小": 1729,
      "少": 1730,
      "尒": 1731,
      "尔": 1732,
      "尕": 1733,
      "尖": 1734,
      "尘": 1735,
      "尚": 1736,
      "尜": 1737,
      "尝": 1738,
      "尢": 1739,
      "尤": 1740,
      "尧": 1741,
      "尬": 1742,
      "就": 1743,
      "尴": 1744,
      "尸": 1745,
      "尹": 1746,
      "尺": 1747,
      "尼": 1748,
      "尽": 1749,
      "尾": 1750,
      "尿": 1751,
      "局": 1752,
      "屁": 1753,
      "层": 1754,
      "居": 1755,
      "屈": 1756,
      "屉": 1757,
      "届": 1758,
      "屋": 1759,
      "屌": 1760,
      "屍": 1761,
      "屎": 1762,
      "屏": 1763,
      "屐": 1764,
      "屑": 1765,
      "展": 1766,
      "屙": 1767,
      "属": 1768,
      "屠": 1769,
      "屡": 1770,
      "屣": 1771,
      "履": 1772,
      "屯": 1773,
      "山": 1774,
      "屹": 1775,
      "屺": 1776,
      "屿": 1777,
      "岁": 1778,
      "岂": 1779,
      "岌": 1780,
      "岐": 1781,
      "岑": 1782,
      "岔": 1783,
      "岖": 1784,
      "岗": 1785,
      "岘": 1786,
      "岚": 1787,
      "岛": 1788,
      "岢": 1789,
      "岣": 1790,
      "岩": 1791,
      "岫": 1792,
      "岭": 1793,
      "岱": 1794,
      "岳": 1795,
      "岵": 1796,
      "岷": 1797,
      "岸": 1798,
      "岿": 1799,
      "峁": 1800,
      "峄": 1801,
      "峋": 1802,
      "峒": 1803,
      "峙": 1804,
      "峡": 1805,
      "峥": 1806,
      "峦": 1807,
      "峨": 1808,
      "峪": 1809,
      "峭": 1810,
      "峰": 1811,
      "峻": 1812,
      "崂": 1813,
      "崆": 1814,
      "崇": 1815,
      "崎": 1816,
      "崔": 1817,
      "崖": 1818,
      "崛": 1819,
      "崧": 1820,
      "崩": 1821,
      "崭": 1822,
      "崮": 1823,
      "崴": 1824,
      "崽": 1825,
      "嵇": 1826,
      "嵊": 1827,
      "嵋": 1828,
      "嵌": 1829,
      "嵘": 1830,
      "嵛": 1831,
      "嵝": 1832,
      "嵩": 1833,
      "嵬": 1834,
      "嵯": 1835,
      "嵴": 1836,
      "嶂": 1837,
      "嶗": 1838,
      "嶙": 1839,
      "嶝": 1840,
      "嶷": 1841,
      "巅": 1842,
      "巍": 1843,
      "巜": 1844,
      "川": 1845,
      "州": 1846,
      "巡": 1847,
      "巢": 1848,
      "工": 1849,
      "左": 1850,
      "巧": 1851,
      "巨": 1852,
      "巩": 1853,
      "巫": 1854,
      "差": 1855,
      "巯": 1856,
      "己": 1857,
      "已": 1858,
      "巳": 1859,
      "巴": 1860,
      "巷": 1861,
      "巽": 1862,
      "巾": 1863,
      "巿": 1864,
      "币": 1865,
      "市": 1866,
      "布": 1867,
      "帅": 1868,
      "帆": 1869,
      "师": 1870,
      "希": 1871,
      "帏": 1872,
      "帐": 1873,
      "帑": 1874,
      "帕": 1875,
      "帖": 1876,
      "帘": 1877,
      "帙": 1878,
      "帚": 1879,
      "帛": 1880,
      "帜": 1881,
      "帝": 1882,
      "带": 1883,
      "帧": 1884,
      "席": 1885,
      "帮": 1886,
      "帱": 1887,
      "帶": 1888,
      "帷": 1889,
      "常": 1890,
      "帼": 1891,
      "帽": 1892,
      "幂": 1893,
      "幄": 1894,
      "幅": 1895,
      "幌": 1896,
      "幔": 1897,
      "幕": 1898,
      "幛": 1899,
      "幞": 1900,
      "幡": 1901,
      "幢": 1902,
      "幫": 1903,
      "干": 1904,
      "平": 1905,
      "年": 1906,
      "并": 1907,
      "幸": 1908,
      "幺": 1909,
      "幻": 1910,
      "幼": 1911,
      "幽": 1912,
      "广": 1913,
      "庄": 1914,
      "庆": 1915,
      "庇": 1916,
      "床": 1917,
      "庋": 1918,
      "序": 1919,
      "庐": 1920,
      "库": 1921,
      "应": 1922,
      "底": 1923,
      "庖": 1924,
      "店": 1925,
      "庙": 1926,
      "庚": 1927,
      "府": 1928,
      "庞": 1929,
      "废": 1930,
      "庠": 1931,
      "度": 1932,
      "座": 1933,
      "庭": 1934,
      "庵": 1935,
      "庶": 1936,
      "康": 1937,
      "庸": 1938,
      "庹": 1939,
      "廉": 1940,
      "廊": 1941,
      "廓": 1942,
      "廖": 1943,
      "廣": 1944,
      "廨": 1945,
      "廪": 1946,
      "延": 1947,
      "廷": 1948,
      "廹": 1949,
      "建": 1950,
      "廾": 1951,
      "廿": 1952,
      "开": 1953,
      "弁": 1954,
      "异": 1955,
      "弃": 1956,
      "弄": 1957,
      "弈": 1958,
      "弊": 1959,
      "弋": 1960,
      "式": 1961,
      "弑": 1962,
      "弓": 1963,
      "引": 1964,
      "弗": 1965,
      "弘": 1966,
      "弛": 1967,
      "弟": 1968,
      "张": 1969,
      "弥": 1970,
      "弦": 1971,
      "弧": 1972,
      "弩": 1973,
      "弭": 1974,
      "弯": 1975,
      "弱": 1976,
      "強": 1977,
      "弹": 1978,
      "强": 1979,
      "弼": 1980,
      "彀": 1981,
      "归": 1982,
      "当": 1983,
      "录": 1984,
      "彖": 1985,
      "彗": 1986,
      "彘": 1987,
      "彝": 1988,
      "彡": 1989,
      "形": 1990,
      "彤": 1991,
      "彦": 1992,
      "彩": 1993,
      "彪": 1994,
      "彬": 1995,
      "彭": 1996,
      "彰": 1997,
      "影": 1998,
      "彳": 1999,
      "彷": 2000,
      "役": 2001,
      "彻": 2002,
      "彼": 2003,
      "往": 2004,
      "征": 2005,
      "徂": 2006,
      "径": 2007,
      "待": 2008,
      "徇": 2009,
      "很": 2010,
      "徉": 2011,
      "徊": 2012,
      "律": 2013,
      "後": 2014,
      "徐": 2015,
      "徒": 2016,
      "徕": 2017,
      "得": 2018,
      "徘": 2019,
      "徙": 2020,
      "徜": 2021,
      "御": 2022,
      "徨": 2023,
      "循": 2024,
      "徭": 2025,
      "微": 2026,
      "徵": 2027,
      "德": 2028,
      "徽": 2029,
      "心": 2030,
      "忄": 2031,
      "必": 2032,
      "忆": 2033,
      "忉": 2034,
      "忌": 2035,
      "忍": 2036,
      "忏": 2037,
      "忐": 2038,
      "忑": 2039,
      "忒": 2040,
      "忖": 2041,
      "志": 2042,
      "忘": 2043,
      "忙": 2044,
      "忝": 2045,
      "忠": 2046,
      "忡": 2047,
      "忤": 2048,
      "忧": 2049,
      "忪": 2050,
      "快": 2051,
      "忭": 2052,
      "忱": 2053,
      "念": 2054,
      "忸": 2055,
      "忻": 2056,
      "忽": 2057,
      "忾": 2058,
      "忿": 2059,
      "怀": 2060,
      "态": 2061,
      "怂": 2062,
      "怃": 2063,
      "怄": 2064,
      "怅": 2065,
      "怆": 2066,
      "怍": 2067,
      "怎": 2068,
      "怏": 2069,
      "怒": 2070,
      "怔": 2071,
      "怕": 2072,
      "怖": 2073,
      "怙": 2074,
      "怜": 2075,
      "思": 2076,
      "怠": 2077,
      "怡": 2078,
      "急": 2079,
      "怦": 2080,
      "性": 2081,
      "怨": 2082,
      "怩": 2083,
      "怪": 2084,
      "怯": 2085,
      "怵": 2086,
      "总": 2087,
      "怼": 2088,
      "怿": 2089,
      "恁": 2090,
      "恂": 2091,
      "恃": 2092,
      "恋": 2093,
      "恍": 2094,
      "恐": 2095,
      "恒": 2096,
      "恕": 2097,
      "恙": 2098,
      "恚": 2099,
      "恢": 2100,
      "恣": 2101,
      "恤": 2102,
      "恨": 2103,
      "恩": 2104,
      "恪": 2105,
      "恫": 2106,
      "恬": 2107,
      "恭": 2108,
      "息": 2109,
      "恰": 2110,
      "恳": 2111,
      "恶": 2112,
      "恸": 2113,
      "恹": 2114,
      "恺": 2115,
      "恻": 2116,
      "恼": 2117,
      "恿": 2118,
      "悃": 2119,
      "悄": 2120,
      "悉": 2121,
      "悌": 2122,
      "悍": 2123,
      "悒": 2124,
      "悔": 2125,
      "悖": 2126,
      "悚": 2127,
      "悝": 2128,
      "悟": 2129,
      "悠": 2130,
      "患": 2131,
      "悦": 2132,
      "您": 2133,
      "悫": 2134,
      "悬": 2135,
      "悭": 2136,
      "悯": 2137,
      "悱": 2138,
      "悲": 2139,
      "悴": 2140,
      "悸": 2141,
      "悻": 2142,
      "悼": 2143,
      "情": 2144,
      "惆": 2145,
      "惊": 2146,
      "惋": 2147,
      "惑": 2148,
      "惕": 2149,
      "惘": 2150,
      "惚": 2151,
      "惜": 2152,
      "惟": 2153,
      "惠": 2154,
      "惦": 2155,
      "惧": 2156,
      "惨": 2157,
      "惩": 2158,
      "惫": 2159,
      "惬": 2160,
      "惭": 2161,
      "惮": 2162,
      "惯": 2163,
      "惰": 2164,
      "想": 2165,
      "惴": 2166,
      "惶": 2167,
      "惹": 2168,
      "惺": 2169,
      "愁": 2170,
      "愅": 2171,
      "愆": 2172,
      "愈": 2173,
      "愉": 2174,
      "愍": 2175,
      "愎": 2176,
      "意": 2177,
      "愕": 2178,
      "愚": 2179,
      "愛": 2180,
      "感": 2181,
      "愠": 2182,
      "愣": 2183,
      "愤": 2184,
      "愦": 2185,
      "愧": 2186,
      "愫": 2187,
      "愿": 2188,
      "慈": 2189,
      "慊": 2190,
      "態": 2191,
      "慌": 2192,
      "慎": 2193,
      "慑": 2194,
      "慕": 2195,
      "慝": 2196,
      "慢": 2197,
      "慧": 2198,
      "慨": 2199,
      "慮": 2200,
      "慰": 2201,
      "慵": 2202,
      "慷": 2203,
      "慾": 2204,
      "憋": 2205,
      "憎": 2206,
      "憔": 2207,
      "憧": 2208,
      "憨": 2209,
      "憩": 2210,
      "憬": 2211,
      "憷": 2212,
      "憾": 2213,
      "懂": 2214,
      "懈": 2215,
      "應": 2216,
      "懊": 2217,
      "懋": 2218,
      "懑": 2219,
      "懒": 2220,
      "懔": 2221,
      "懦": 2222,
      "懵": 2223,
      "懿": 2224,
      "戀": 2225,
      "戈": 2226,
      "戊": 2227,
      "戌": 2228,
      "戍": 2229,
      "戎": 2230,
      "戏": 2231,
      "成": 2232,
      "我": 2233,
      "戒": 2234,
      "戕": 2235,
      "或": 2236,
      "戗": 2237,
      "战": 2238,
      "戚": 2239,
      "戛": 2240,
      "戟": 2241,
      "戢": 2242,
      "戥": 2243,
      "截": 2244,
      "戬": 2245,
      "戮": 2246,
      "戳": 2247,
      "戴": 2248,
      "户": 2249,
      "戾": 2250,
      "房": 2251,
      "所": 2252,
      "扁": 2253,
      "扆": 2254,
      "扇": 2255,
      "扈": 2256,
      "扉": 2257,
      "手": 2258,
      "才": 2259,
      "扎": 2260,
      "扑": 2261,
      "扒": 2262,
      "打": 2263,
      "扔": 2264,
      "托": 2265,
      "扛": 2266,
      "扣": 2267,
      "扦": 2268,
      "执": 2269,
      "扩": 2270,
      "扪": 2271,
      "扫": 2272,
      "扬": 2273,
      "扭": 2274,
      "扮": 2275,
      "扯": 2276,
      "扰": 2277,
      "扱": 2278,
      "扳": 2279,
      "扶": 2280,
      "批": 2281,
      "扼": 2282,
      "找": 2283,
      "承": 2284,
      "技": 2285,
      "抄": 2286,
      "抉": 2287,
      "把": 2288,
      "抑": 2289,
      "抒": 2290,
      "抓": 2291,
      "抔": 2292,
      "投": 2293,
      "抖": 2294,
      "抗": 2295,
      "折": 2296,
      "抚": 2297,
      "抛": 2298,
      "抟": 2299,
      "抠": 2300,
      "抡": 2301,
      "抢": 2302,
      "护": 2303,
      "报": 2304,
      "抨": 2305,
      "披": 2306,
      "抬": 2307,
      "抱": 2308,
      "抵": 2309,
      "抹": 2310,
      "抻": 2311,
      "押": 2312,
      "抽": 2313,
      "抿": 2314,
      "拂": 2315,
      "拄": 2316,
      "担": 2317,
      "拆": 2318,
      "拇": 2319,
      "拈": 2320,
      "拉": 2321,
      "拊": 2322,
      "拌": 2323,
      "拍": 2324,
      "拎": 2325,
      "拐": 2326,
      "拒": 2327,
      "拓": 2328,
      "拔": 2329,
      "拖": 2330,
      "拗": 2331,
      "拘": 2332,
      "拙": 2333,
      "拚": 2334,
      "招": 2335,
      "拜": 2336,
      "拟": 2337,
      "拢": 2338,
      "拣": 2339,
      "拥": 2340,
      "拦": 2341,
      "拧": 2342,
      "拨": 2343,
      "择": 2344,
      "括": 2345,
      "拭": 2346,
      "拮": 2347,
      "拯": 2348,
      "拱": 2349,
      "拳": 2350,
      "拴": 2351,
      "拶": 2352,
      "拷": 2353,
      "拼": 2354,
      "拽": 2355,
      "拾": 2356,
      "拿": 2357,
      "持": 2358,
      "挂": 2359,
      "指": 2360,
      "挈": 2361,
      "按": 2362,
      "挎": 2363,
      "挑": 2364,
      "挒": 2365,
      "挖": 2366,
      "挚": 2367,
      "挛": 2368,
      "挝": 2369,
      "挞": 2370,
      "挟": 2371,
      "挠": 2372,
      "挡": 2373,
      "挣": 2374,
      "挤": 2375,
      "挥": 2376,
      "挨": 2377,
      "挪": 2378,
      "挫": 2379,
      "振": 2380,
      "挲": 2381,
      "挹": 2382,
      "挺": 2383,
      "挻": 2384,
      "挽": 2385,
      "捂": 2386,
      "捅": 2387,
      "捆": 2388,
      "捉": 2389,
      "捋": 2390,
      "捌": 2391,
      "捍": 2392,
      "捎": 2393,
      "捏": 2394,
      "捐": 2395,
      "捕": 2396,
      "捞": 2397,
      "损": 2398,
      "捡": 2399,
      "换": 2400,
      "捣": 2401,
      "捧": 2402,
      "捭": 2403,
      "据": 2404,
      "捱": 2405,
      "捶": 2406,
      "捷": 2407,
      "捺": 2408,
      "捻": 2409,
      "捿": 2410,
      "掀": 2411,
      "掂": 2412,
      "掇": 2413,
      "授": 2414,
      "掉": 2415,
      "掊": 2416,
      "掌": 2417,
      "掎": 2418,
      "掏": 2419,
      "掐": 2420,
      "排": 2421,
      "掖": 2422,
      "掘": 2423,
      "掠": 2424,
      "採": 2425,
      "探": 2426,
      "掣": 2427,
      "接": 2428,
      "控": 2429,
      "推": 2430,
      "掩": 2431,
      "措": 2432,
      "掬": 2433,
      "掮": 2434,
      "掰": 2435,
      "掱": 2436,
      "掳": 2437,
      "掴": 2438,
      "掵": 2439,
      "掷": 2440,
      "掸": 2441,
      "掺": 2442,
      "掼": 2443,
      "掾": 2444,
      "揄": 2445,
      "揉": 2446,
      "揍": 2447,
      "描": 2448,
      "提": 2449,
      "插": 2450,
      "揖": 2451,
      "換": 2452,
      "揠": 2453,
      "握": 2454,
      "揣": 2455,
      "揩": 2456,
      "揪": 2457,
      "揭": 2458,
      "援": 2459,
      "揶": 2460,
      "揷": 2461,
      "揸": 2462,
      "揽": 2463,
      "揿": 2464,
      "搀": 2465,
      "搁": 2466,
      "搂": 2467,
      "搅": 2468,
      "搋": 2469,
      "搏": 2470,
      "搐": 2471,
      "搓": 2472,
      "搔": 2473,
      "搜": 2474,
      "搞": 2475,
      "搡": 2476,
      "搦": 2477,
      "搪": 2478,
      "搬": 2479,
      "搭": 2480,
      "携": 2481,
      "搽": 2482,
      "摁": 2483,
      "摄": 2484,
      "摆": 2485,
      "摇": 2486,
      "摈": 2487,
      "摊": 2488,
      "摒": 2489,
      "摔": 2490,
      "摘": 2491,
      "摞": 2492,
      "摧": 2493,
      "摩": 2494,
      "摭": 2495,
      "摸": 2496,
      "摹": 2497,
      "摺": 2498,
      "撂": 2499,
      "撅": 2500,
      "撇": 2501,
      "撑": 2502,
      "撒": 2503,
      "撓": 2504,
      "撕": 2505,
      "撞": 2506,
      "撤": 2507,
      "撩": 2508,
      "撫": 2509,
      "撬": 2510,
      "播": 2511,
      "撮": 2512,
      "撰": 2513,
      "撵": 2514,
      "撷": 2515,
      "撸": 2516,
      "撺": 2517,
      "撼": 2518,
      "撽": 2519,
      "擀": 2520,
      "擁": 2521,
      "擂": 2522,
      "擅": 2523,
      "擇": 2524,
      "操": 2525,
      "擎": 2526,
      "擒": 2527,
      "據": 2528,
      "擞": 2529,
      "擠": 2530,
      "擢": 2531,
      "擤": 2532,
      "擦": 2533,
      "攀": 2534,
      "攒": 2535,
      "攘": 2536,
      "攥": 2537,
      "攫": 2538,
      "支": 2539,
      "收": 2540,
      "攸": 2541,
      "改": 2542,
      "攻": 2543,
      "放": 2544,
      "政": 2545,
      "故": 2546,
      "效": 2547,
      "敌": 2548,
      "敏": 2549,
      "救": 2550,
      "敕": 2551,
      "敖": 2552,
      "教": 2553,
      "敛": 2554,
      "敝": 2555,
      "敞": 2556,
      "敢": 2557,
      "散": 2558,
      "敦": 2559,
      "敬": 2560,
      "数": 2561,
      "敲": 2562,
      "整": 2563,
      "敷": 2564,
      "文": 2565,
      "斋": 2566,
      "斌": 2567,
      "斐": 2568,
      "斑": 2569,
      "斓": 2570,
      "斗": 2571,
      "料": 2572,
      "斛": 2573,
      "斜": 2574,
      "斟": 2575,
      "斡": 2576,
      "斤": 2577,
      "斥": 2578,
      "斧": 2579,
      "斩": 2580,
      "断": 2581,
      "斯": 2582,
      "新": 2583,
      "斷": 2584,
      "方": 2585,
      "於": 2586,
      "施": 2587,
      "旁": 2588,
      "旄": 2589,
      "旅": 2590,
      "旋": 2591,
      "旌": 2592,
      "旎": 2593,
      "族": 2594,
      "旖": 2595,
      "旗": 2596,
      "无": 2597,
      "既": 2598,
      "日": 2599,
      "旦": 2600,
      "旧": 2601,
      "旨": 2602,
      "早": 2603,
      "旬": 2604,
      "旭": 2605,
      "旮": 2606,
      "旯": 2607,
      "旱": 2608,
      "旳": 2609,
      "时": 2610,
      "旷": 2611,
      "旺": 2612,
      "昂": 2613,
      "昆": 2614,
      "昊": 2615,
      "昌": 2616,
      "明": 2617,
      "昏": 2618,
      "易": 2619,
      "昔": 2620,
      "昕": 2621,
      "昙": 2622,
      "昝": 2623,
      "星": 2624,
      "映": 2625,
      "春": 2626,
      "昧": 2627,
      "昨": 2628,
      "昭": 2629,
      "是": 2630,
      "昱": 2631,
      "昴": 2632,
      "昵": 2633,
      "昶": 2634,
      "昼": 2635,
      "显": 2636,
      "晁": 2637,
      "時": 2638,
      "晃": 2639,
      "晋": 2640,
      "晌": 2641,
      "晏": 2642,
      "晒": 2643,
      "晓": 2644,
      "晔": 2645,
      "晕": 2646,
      "晖": 2647,
      "晗": 2648,
      "晚": 2649,
      "晟": 2650,
      "晡": 2651,
      "晤": 2652,
      "晦": 2653,
      "晨": 2654,
      "普": 2655,
      "景": 2656,
      "晰": 2657,
      "晴": 2658,
      "晶": 2659,
      "晷": 2660,
      "智": 2661,
      "晾": 2662,
      "暂": 2663,
      "暄": 2664,
      "暅": 2665,
      "暇": 2666,
      "暈": 2667,
      "暌": 2668,
      "暑": 2669,
      "暖": 2670,
      "暗": 2671,
      "暝": 2672,
      "暧": 2673,
      "暨": 2674,
      "暫": 2675,
      "暮": 2676,
      "暴": 2677,
      "暹": 2678,
      "曙": 2679,
      "曛": 2680,
      "曜": 2681,
      "曝": 2682,
      "曦": 2683,
      "曩": 2684,
      "曬": 2685,
      "曰": 2686,
      "曲": 2687,
      "曳": 2688,
      "更": 2689,
      "曷": 2690,
      "書": 2691,
      "曹": 2692,
      "曼": 2693,
      "曾": 2694,
      "替": 2695,
      "最": 2696,
      "會": 2697,
      "月": 2698,
      "有": 2699,
      "朊": 2700,
      "朋": 2701,
      "服": 2702,
      "朐": 2703,
      "朔": 2704,
      "朕": 2705,
      "朗": 2706,
      "望": 2707,
      "朝": 2708,
      "期": 2709,
      "朦": 2710,
      "木": 2711,
      "未": 2712,
      "末": 2713,
      "本": 2714,
      "札": 2715,
      "术": 2716,
      "朱": 2717,
      "朴": 2718,
      "朵": 2719,
      "机": 2720,
      "朽": 2721,
      "杀": 2722,
      "杂": 2723,
      "权": 2724,
      "杆": 2725,
      "杈": 2726,
      "杉": 2727,
      "杌": 2728,
      "李": 2729,
      "杏": 2730,
      "材": 2731,
      "村": 2732,
      "杓": 2733,
      "杖": 2734,
      "杘": 2735,
      "杜": 2736,
      "杞": 2737,
      "束": 2738,
      "杠": 2739,
      "条": 2740,
      "来": 2741,
      "杨": 2742,
      "杪": 2743,
      "杭": 2744,
      "杯": 2745,
      "杰": 2746,
      "東": 2747,
      "杲": 2748,
      "杳": 2749,
      "杵": 2750,
      "杷": 2751,
      "杼": 2752,
      "松": 2753,
      "板": 2754,
      "极": 2755,
      "构": 2756,
      "枇": 2757,
      "枉": 2758,
      "枋": 2759,
      "析": 2760,
      "枕": 2761,
      "林": 2762,
      "枚": 2763,
      "果": 2764,
      "枝": 2765,
      "枞": 2766,
      "枢": 2767,
      "枣": 2768,
      "枥": 2769,
      "枪": 2770,
      "枫": 2771,
      "枭": 2772,
      "枯": 2773,
      "枰": 2774,
      "枳": 2775,
      "架": 2776,
      "枷": 2777,
      "枸": 2778,
      "柁": 2779,
      "柄": 2780,
      "柈": 2781,
      "柊": 2782,
      "柏": 2783,
      "某": 2784,
      "柑": 2785,
      "柒": 2786,
      "染": 2787,
      "柔": 2788,
      "柘": 2789,
      "柚": 2790,
      "柜": 2791,
      "柝": 2792,
      "柞": 2793,
      "柠": 2794,
      "柢": 2795,
      "查": 2796,
      "柩": 2797,
      "柬": 2798,
      "柯": 2799,
      "柰": 2800,
      "柱": 2801,
      "柳": 2802,
      "柴": 2803,
      "柿": 2804,
      "栀": 2805,
      "栅": 2806,
      "标": 2807,
      "栈": 2808,
      "栉": 2809,
      "栊": 2810,
      "栋": 2811,
      "栌": 2812,
      "栎": 2813,
      "栏": 2814,
      "树": 2815,
      "栓": 2816,
      "栖": 2817,
      "栗": 2818,
      "校": 2819,
      "栩": 2820,
      "株": 2821,
      "栲": 2822,
      "栳": 2823,
      "样": 2824,
      "核": 2825,
      "根": 2826,
      "格": 2827,
      "栽": 2828,
      "栾": 2829,
      "桀": 2830,
      "桁": 2831,
      "桂": 2832,
      "桃": 2833,
      "桄": 2834,
      "桅": 2835,
      "框": 2836,
      "案": 2837,
      "桉": 2838,
      "桌": 2839,
      "桎": 2840,
      "桐": 2841,
      "桑": 2842,
      "桓": 2843,
      "桔": 2844,
      "桠": 2845,
      "桡": 2846,
      "桢": 2847,
      "档": 2848,
      "桤": 2849,
      "桥": 2850,
      "桦": 2851,
      "桧": 2852,
      "桨": 2853,
      "桩": 2854,
      "桫": 2855,
      "桶": 2856,
      "梁": 2857,
      "梃": 2858,
      "梅": 2859,
      "梆": 2860,
      "梏": 2861,
      "梓": 2862,
      "梗": 2863,
      "梢": 2864,
      "梦": 2865,
      "梧": 2866,
      "梨": 2867,
      "梭": 2868,
      "梯": 2869,
      "械": 2870,
      "梳": 2871,
      "梵": 2872,
      "检": 2873,
      "棂": 2874,
      "棈": 2875,
      "棉": 2876,
      "棋": 2877,
      "棍": 2878,
      "棑": 2879,
      "棒": 2880,
      "棕": 2881,
      "棘": 2882,
      "棚": 2883,
      "棠": 2884,
      "棣": 2885,
      "森": 2886,
      "棰": 2887,
      "棱": 2888,
      "棵": 2889,
      "棹": 2890,
      "棺": 2891,
      "椁": 2892,
      "椅": 2893,
      "椋": 2894,
      "植": 2895,
      "椎": 2896,
      "椐": 2897,
      "椒": 2898,
      "椟": 2899,
      "椤": 2900,
      "椭": 2901,
      "椰": 2902,
      "椴": 2903,
      "椹": 2904,
      "椽": 2905,
      "椿": 2906,
      "楂": 2907,
      "楔": 2908,
      "楗": 2909,
      "楚": 2910,
      "楝": 2911,
      "楞": 2912,
      "楠": 2913,
      "楣": 2914,
      "楦": 2915,
      "楫": 2916,
      "楱": 2917,
      "極": 2918,
      "楷": 2919,
      "楸": 2920,
      "楹": 2921,
      "楼": 2922,
      "楿": 2923,
      "概": 2924,
      "榄": 2925,
      "榆": 2926,
      "榈": 2927,
      "榉": 2928,
      "榍": 2929,
      "榔": 2930,
      "榕": 2931,
      "榘": 2932,
      "榛": 2933,
      "榜": 2934,
      "榧": 2935,
      "榨": 2936,
      "榫": 2937,
      "榭": 2938,
      "榴": 2939,
      "榷": 2940,
      "榻": 2941,
      "槁": 2942,
      "槊": 2943,
      "構": 2944,
      "槌": 2945,
      "槎": 2946,
      "槐": 2947,
      "槛": 2948,
      "槟": 2949,
      "槭": 2950,
      "槲": 2951,
      "槽": 2952,
      "槿": 2953,
      "樂": 2954,
      "樊": 2955,
      "樗": 2956,
      "樘": 2957,
      "標": 2958,
      "樟": 2959,
      "模": 2960,
      "樣": 2961,
      "樨": 2962,
      "横": 2963,
      "樯": 2964,
      "樱": 2965,
      "樵": 2966,
      "樽": 2967,
      "樾": 2968,
      "橄": 2969,
      "橇": 2970,
      "橐": 2971,
      "橘": 2972,
      "橙": 2973,
      "橛": 2974,
      "機": 2975,
      "橡": 2976,
      "橱": 2977,
      "橹": 2978,
      "橼": 2979,
      "檀": 2980,
      "檄": 2981,
      "檎": 2982,
      "檐": 2983,
      "檗": 2984,
      "檠": 2985,
      "檢": 2986,
      "檫": 2987,
      "檬": 2988,
      "權": 2989,
      "欠": 2990,
      "次": 2991,
      "欢": 2992,
      "欣": 2993,
      "欤": 2994,
      "欧": 2995,
      "欲": 2996,
      "欷": 2997,
      "欸": 2998,
      "欹": 2999,
      "欺": 3000,
      "款": 3001,
      "歃": 3002,
      "歆": 3003,
      "歇": 3004,
      "歉": 3005,
      "歌": 3006,
      "歙": 3007,
      "歡": 3008,
      "止": 3009,
      "正": 3010,
      "此": 3011,
      "步": 3012,
      "武": 3013,
      "歧": 3014,
      "歪": 3015,
      "歹": 3016,
      "死": 3017,
      "歼": 3018,
      "殁": 3019,
      "殂": 3020,
      "殃": 3021,
      "殆": 3022,
      "殇": 3023,
      "殉": 3024,
      "殊": 3025,
      "残": 3026,
      "殍": 3027,
      "殒": 3028,
      "殓": 3029,
      "殖": 3030,
      "殚": 3031,
      "殛": 3032,
      "殡": 3033,
      "殴": 3034,
      "段": 3035,
      "殷": 3036,
      "殿": 3037,
      "毁": 3038,
      "毂": 3039,
      "毅": 3040,
      "毋": 3041,
      "母": 3042,
      "每": 3043,
      "毑": 3044,
      "毒": 3045,
      "毓": 3046,
      "比": 3047,
      "毕": 3048,
      "毖": 3049,
      "毗": 3050,
      "毙": 3051,
      "毛": 3052,
      "毡": 3053,
      "毫": 3054,
      "毯": 3055,
      "毽": 3056,
      "氅": 3057,
      "氏": 3058,
      "氐": 3059,
      "民": 3060,
      "氓": 3061,
      "气": 3062,
      "氕": 3063,
      "氖": 3064,
      "氘": 3065,
      "氙": 3066,
      "氚": 3067,
      "氛": 3068,
      "氟": 3069,
      "氡": 3070,
      "氢": 3071,
      "氣": 3072,
      "氤": 3073,
      "氦": 3074,
      "氧": 3075,
      "氨": 3076,
      "氩": 3077,
      "氪": 3078,
      "氮": 3079,
      "氯": 3080,
      "氰": 3081,
      "氲": 3082,
      "水": 3083,
      "氵": 3084,
      "永": 3085,
      "氽": 3086,
      "汀": 3087,
      "汁": 3088,
      "求": 3089,
      "汆": 3090,
      "汇": 3091,
      "汉": 3092,
      "汊": 3093,
      "汏": 3094,
      "汐": 3095,
      "汔": 3096,
      "汕": 3097,
      "汗": 3098,
      "汛": 3099,
      "汜": 3100,
      "汝": 3101,
      "汞": 3102,
      "江": 3103,
      "池": 3104,
      "污": 3105,
      "汤": 3106,
      "汨": 3107,
      "汩": 3108,
      "汪": 3109,
      "汰": 3110,
      "汲": 3111,
      "汴": 3112,
      "汶": 3113,
      "汹": 3114,
      "決": 3115,
      "汽": 3116,
      "汾": 3117,
      "沁": 3118,
      "沂": 3119,
      "沃": 3120,
      "沅": 3121,
      "沆": 3122,
      "沈": 3123,
      "沉": 3124,
      "沌": 3125,
      "沏": 3126,
      "沐": 3127,
      "沒": 3128,
      "沓": 3129,
      "沔": 3130,
      "沙": 3131,
      "沛": 3132,
      "沟": 3133,
      "没": 3134,
      "沣": 3135,
      "沤": 3136,
      "沥": 3137,
      "沦": 3138,
      "沧": 3139,
      "沩": 3140,
      "沪": 3141,
      "沫": 3142,
      "沭": 3143,
      "沮": 3144,
      "沱": 3145,
      "河": 3146,
      "沸": 3147,
      "油": 3148,
      "治": 3149,
      "沼": 3150,
      "沽": 3151,
      "沾": 3152,
      "沿": 3153,
      "況": 3154,
      "泄": 3155,
      "泅": 3156,
      "泉": 3157,
      "泊": 3158,
      "泌": 3159,
      "泓": 3160,
      "泔": 3161,
      "法": 3162,
      "泗": 3163,
      "泛": 3164,
      "泞": 3165,
      "泠": 3166,
      "泡": 3167,
      "波": 3168,
      "泣": 3169,
      "泥": 3170,
      "注": 3171,
      "泪": 3172,
      "泫": 3173,
      "泮": 3174,
      "泯": 3175,
      "泰": 3176,
      "泱": 3177,
      "泳": 3178,
      "泵": 3179,
      "泷": 3180,
      "泸": 3181,
      "泻": 3182,
      "泼": 3183,
      "泽": 3184,
      "泾": 3185,
      "洁": 3186,
      "洄": 3187,
      "洇": 3188,
      "洋": 3189,
      "洌": 3190,
      "洎": 3191,
      "洒": 3192,
      "洗": 3193,
      "洙": 3194,
      "洛": 3195,
      "洞": 3196,
      "洤": 3197,
      "津": 3198,
      "洩": 3199,
      "洪": 3200,
      "洮": 3201,
      "洱": 3202,
      "洲": 3203,
      "洳": 3204,
      "洵": 3205,
      "洹": 3206,
      "活": 3207,
      "洼": 3208,
      "洽": 3209,
      "派": 3210,
      "流": 3211,
      "浃": 3212,
      "浅": 3213,
      "浆": 3214,
      "浇": 3215,
      "浊": 3216,
      "测": 3217,
      "济": 3218,
      "浏": 3219,
      "浑": 3220,
      "浒": 3221,
      "浓": 3222,
      "浔": 3223,
      "浙": 3224,
      "浚": 3225,
      "浜": 3226,
      "浞": 3227,
      "浠": 3228,
      "浣": 3229,
      "浦": 3230,
      "浩": 3231,
      "浪": 3232,
      "浮": 3233,
      "浴": 3234,
      "海": 3235,
      "浸": 3236,
      "浼": 3237,
      "涂": 3238,
      "涅": 3239,
      "消": 3240,
      "涉": 3241,
      "涌": 3242,
      "涎": 3243,
      "涑": 3244,
      "涓": 3245,
      "涕": 3246,
      "涛": 3247,
      "涝": 3248,
      "涞": 3249,
      "涟": 3250,
      "涠": 3251,
      "涡": 3252,
      "涣": 3253,
      "涤": 3254,
      "润": 3255,
      "涧": 3256,
      "涨": 3257,
      "涩": 3258,
      "涪": 3259,
      "涮": 3260,
      "涯": 3261,
      "液": 3262,
      "涵": 3263,
      "涸": 3264,
      "涿": 3265,
      "淀": 3266,
      "淄": 3267,
      "淅": 3268,
      "淆": 3269,
      "淇": 3270,
      "淋": 3271,
      "淌": 3272,
      "淑": 3273,
      "淖": 3274,
      "淘": 3275,
      "淙": 3276,
      "淚": 3277,
      "淛": 3278,
      "淝": 3279,
      "淞": 3280,
      "淡": 3281,
      "淤": 3282,
      "淦": 3283,
      "淨": 3284,
      "淫": 3285,
      "淬": 3286,
      "淮": 3287,
      "深": 3288,
      "淳": 3289,
      "混": 3290,
      "淹": 3291,
      "添": 3292,
      "淼": 3293,
      "渁": 3294,
      "清": 3295,
      "渊": 3296,
      "渌": 3297,
      "渍": 3298,
      "渎": 3299,
      "渐": 3300,
      "渑": 3301,
      "渔": 3302,
      "渖": 3303,
      "渗": 3304,
      "渘": 3305,
      "渚": 3306,
      "渝": 3307,
      "渠": 3308,
      "渡": 3309,
      "渣": 3310,
      "渤": 3311,
      "渥": 3312,
      "温": 3313,
      "渭": 3314,
      "港": 3315,
      "渲": 3316,
      "渴": 3317,
      "游": 3318,
      "渺": 3319,
      "湃": 3320,
      "湄": 3321,
      "湍": 3322,
      "湎": 3323,
      "湖": 3324,
      "湘": 3325,
      "湛": 3326,
      "湟": 3327,
      "湫": 3328,
      "湮": 3329,
      "湾": 3330,
      "湿": 3331,
      "溃": 3332,
      "溅": 3333,
      "溆": 3334,
      "溇": 3335,
      "溉": 3336,
      "溏": 3337,
      "源": 3338,
      "準": 3339,
      "溘": 3340,
      "溜": 3341,
      "溝": 3342,
      "溟": 3343,
      "溢": 3344,
      "溥": 3345,
      "溧": 3346,
      "溪": 3347,
      "溫": 3348,
      "溯": 3349,
      "溲": 3350,
      "溴": 3351,
      "溶": 3352,
      "溷": 3353,
      "溺": 3354,
      "溻": 3355,
      "滁": 3356,
      "滂": 3357,
      "滇": 3358,
      "滈": 3359,
      "滋": 3360,
      "滑": 3361,
      "滓": 3362,
      "滔": 3363,
      "滕": 3364,
      "滗": 3365,
      "滘": 3366,
      "滚": 3367,
      "滞": 3368,
      "滟": 3369,
      "满": 3370,
      "滢": 3371,
      "滤": 3372,
      "滥": 3373,
      "滦": 3374,
      "滨": 3375,
      "滩": 3376,
      "滴": 3377,
      "漂": 3378,
      "漆": 3379,
      "漉": 3380,
      "漏": 3381,
      "漓": 3382,
      "演": 3383,
      "漕": 3384,
      "漠": 3385,
      "漩": 3386,
      "漪": 3387,
      "漫": 3388,
      "漯": 3389,
      "漰": 3390,
      "漱": 3391,
      "漲": 3392,
      "漳": 3393,
      "漶": 3394,
      "漾": 3395,
      "漿": 3396,
      "潇": 3397,
      "潋": 3398,
      "潍": 3399,
      "潔": 3400,
      "潘": 3401,
      "潜": 3402,
      "潞": 3403,
      "潢": 3404,
      "潤": 3405,
      "潦": 3406,
      "潭": 3407,
      "潮": 3408,
      "潲": 3409,
      "潴": 3410,
      "潸": 3411,
      "潺": 3412,
      "潼": 3413,
      "澄": 3414,
      "澈": 3415,
      "澎": 3416,
      "澜": 3417,
      "澡": 3418,
      "澧": 3419,
      "澳": 3420,
      "澶": 3421,
      "澹": 3422,
      "激": 3423,
      "濁": 3424,
      "濂": 3425,
      "濆": 3426,
      "濉": 3427,
      "濑": 3428,
      "濒": 3429,
      "濕": 3430,
      "濟": 3431,
      "濠": 3432,
      "濡": 3433,
      "濮": 3434,
      "濯": 3435,
      "瀑": 3436,
      "瀚": 3437,
      "瀛": 3438,
      "瀣": 3439,
      "灌": 3440,
      "灏": 3441,
      "灝": 3442,
      "灞": 3443,
      "火": 3444,
      "灬": 3445,
      "灭": 3446,
      "灯": 3447,
      "灰": 3448,
      "灵": 3449,
      "灶": 3450,
      "灸": 3451,
      "灼": 3452,
      "灾": 3453,
      "灿": 3454,
      "炀": 3455,
      "炅": 3456,
      "炉": 3457,
      "炊": 3458,
      "炎": 3459,
      "炒": 3460,
      "炔": 3461,
      "炕": 3462,
      "炖": 3463,
      "炙": 3464,
      "炜": 3465,
      "炝": 3466,
      "炪": 3467,
      "炫": 3468,
      "炬": 3469,
      "炭": 3470,
      "炮": 3471,
      "炯": 3472,
      "炱": 3473,
      "炳": 3474,
      "炷": 3475,
      "炸": 3476,
      "点": 3477,
      "為": 3478,
      "炼": 3479,
      "炽": 3480,
      "烁": 3481,
      "烂": 3482,
      "烃": 3483,
      "烈": 3484,
      "烊": 3485,
      "烘": 3486,
      "烙": 3487,
      "烛": 3488,
      "烝": 3489,
      "烟": 3490,
      "烤": 3491,
      "烦": 3492,
      "烧": 3493,
      "烨": 3494,
      "烩": 3495,
      "烫": 3496,
      "烬": 3497,
      "热": 3498,
      "烯": 3499,
      "烷": 3500,
      "烹": 3501,
      "烽": 3502,
      "焉": 3503,
      "焊": 3504,
      "焐": 3505,
      "焓": 3506,
      "焕": 3507,
      "焖": 3508,
      "焗": 3509,
      "焙": 3510,
      "焚": 3511,
      "焦": 3512,
      "焯": 3513,
      "焰": 3514,
      "焱": 3515,
      "然": 3516,
      "煅": 3517,
      "煊": 3518,
      "煌": 3519,
      "煎": 3520,
      "煜": 3521,
      "煞": 3522,
      "煤": 3523,
      "煦": 3524,
      "照": 3525,
      "煨": 3526,
      "煮": 3527,
      "煲": 3528,
      "煳": 3529,
      "煸": 3530,
      "煽": 3531,
      "熄": 3532,
      "熊": 3533,
      "熏": 3534,
      "熔": 3535,
      "熘": 3536,
      "熙": 3537,
      "熟": 3538,
      "熠": 3539,
      "熨": 3540,
      "熬": 3541,
      "熳": 3542,
      "熵": 3543,
      "熷": 3544,
      "熹": 3545,
      "燃": 3546,
      "燈": 3547,
      "燎": 3548,
      "燒": 3549,
      "燔": 3550,
      "燕": 3551,
      "燚": 3552,
      "營": 3553,
      "燥": 3554,
      "燧": 3555,
      "燹": 3556,
      "燿": 3557,
      "爆": 3558,
      "爌": 3559,
      "爖": 3560,
      "爨": 3561,
      "爪": 3562,
      "爬": 3563,
      "爰": 3564,
      "爱": 3565,
      "爵": 3566,
      "父": 3567,
      "爷": 3568,
      "爸": 3569,
      "爹": 3570,
      "爻": 3571,
      "爽": 3572,
      "爿": 3573,
      "片": 3574,
      "版": 3575,
      "牌": 3576,
      "牍": 3577,
      "牐": 3578,
      "牒": 3579,
      "牖": 3580,
      "牙": 3581,
      "牛": 3582,
      "牝": 3583,
      "牟": 3584,
      "牠": 3585,
      "牡": 3586,
      "牢": 3587,
      "牦": 3588,
      "牧": 3589,
      "物": 3590,
      "牪": 3591,
      "牫": 3592,
      "牯": 3593,
      "牲": 3594,
      "牵": 3595,
      "特": 3596,
      "牺": 3597,
      "犀": 3598,
      "犁": 3599,
      "犄": 3600,
      "犊": 3601,
      "犒": 3602,
      "犟": 3603,
      "犬": 3604,
      "犯": 3605,
      "犰": 3606,
      "犴": 3607,
      "状": 3608,
      "犷": 3609,
      "犸": 3610,
      "犹": 3611,
      "狀": 3612,
      "狁": 3613,
      "狂": 3614,
      "狃": 3615,
      "狄": 3616,
      "狈": 3617,
      "狌": 3618,
      "狍": 3619,
      "狎": 3620,
      "狐": 3621,
      "狒": 3622,
      "狗": 3623,
      "狙": 3624,
      "狞": 3625,
      "狠": 3626,
      "狡": 3627,
      "狨": 3628,
      "狩": 3629,
      "独": 3630,
      "狭": 3631,
      "狮": 3632,
      "狯": 3633,
      "狰": 3634,
      "狱": 3635,
      "狲": 3636,
      "狳": 3637,
      "狴": 3638,
      "狸": 3639,
      "狻": 3640,
      "狼": 3641,
      "狿": 3642,
      "猁": 3643,
      "猄": 3644,
      "猇": 3645,
      "猊": 3646,
      "猎": 3647,
      "猓": 3648,
      "猕": 3649,
      "猖": 3650,
      "猗": 3651,
      "猛": 3652,
      "猜": 3653,
      "猝": 3654,
      "猞": 3655,
      "猢": 3656,
      "猥": 3657,
      "猩": 3658,
      "猪": 3659,
      "猫": 3660,
      "猬": 3661,
      "献": 3662,
      "猲": 3663,
      "猴": 3664,
      "猷": 3665,
      "猹": 3666,
      "猾": 3667,
      "猿": 3668,
      "獅": 3669,
      "獐": 3670,
      "獒": 3671,
      "獗": 3672,
      "獠": 3673,
      "獭": 3674,
      "獲": 3675,
      "獾": 3676,
      "玄": 3677,
      "玆": 3678,
      "率": 3679,
      "玉": 3680,
      "王": 3681,
      "玑": 3682,
      "玕": 3683,
      "玖": 3684,
      "玛": 3685,
      "玢": 3686,
      "玥": 3687,
      "玩": 3688,
      "玫": 3689,
      "玮": 3690,
      "环": 3691,
      "现": 3692,
      "玲": 3693,
      "玷": 3694,
      "玺": 3695,
      "玻": 3696,
      "珀": 3697,
      "珂": 3698,
      "珅": 3699,
      "珈": 3700,
      "珉": 3701,
      "珊": 3702,
      "珍": 3703,
      "珐": 3704,
      "珑": 3705,
      "珒": 3706,
      "珙": 3707,
      "珞": 3708,
      "珠": 3709,
      "珥": 3710,
      "珩": 3711,
      "班": 3712,
      "珲": 3713,
      "珺": 3714,
      "珽": 3715,
      "現": 3716,
      "球": 3717,
      "琅": 3718,
      "理": 3719,
      "琇": 3720,
      "琉": 3721,
      "琊": 3722,
      "琍": 3723,
      "琏": 3724,
      "琐": 3725,
      "琛": 3726,
      "琢": 3727,
      "琥": 3728,
      "琦": 3729,
      "琨": 3730,
      "琪": 3731,
      "琬": 3732,
      "琮": 3733,
      "琰": 3734,
      "琳": 3735,
      "琴": 3736,
      "琵": 3737,
      "琶": 3738,
      "琺": 3739,
      "琼": 3740,
      "瑀": 3741,
      "瑁": 3742,
      "瑄": 3743,
      "瑕": 3744,
      "瑗": 3745,
      "瑙": 3746,
      "瑚": 3747,
      "瑛": 3748,
      "瑜": 3749,
      "瑞": 3750,
      "瑟": 3751,
      "瑭": 3752,
      "瑰": 3753,
      "瑶": 3754,
      "瑷": 3755,
      "瑾": 3756,
      "璀": 3757,
      "璃": 3758,
      "璇": 3759,
      "璊": 3760,
      "璋": 3761,
      "璎": 3762,
      "璐": 3763,
      "璜": 3764,
      "璞": 3765,
      "璟": 3766,
      "璠": 3767,
      "璧": 3768,
      "璨": 3769,
      "瓒": 3770,
      "瓘": 3771,
      "瓜": 3772,
      "瓞": 3773,
      "瓠": 3774,
      "瓢": 3775,
      "瓣": 3776,
      "瓤": 3777,
      "瓦": 3778,
      "瓮": 3779,
      "瓯": 3780,
      "瓴": 3781,
      "瓶": 3782,
      "瓷": 3783,
      "瓿": 3784,
      "甄": 3785,
      "甏": 3786,
      "甑": 3787,
      "甓": 3788,
      "甘": 3789,
      "甙": 3790,
      "甚": 3791,
      "甜": 3792,
      "生": 3793,
      "甡": 3794,
      "產": 3795,
      "甥": 3796,
      "甦": 3797,
      "用": 3798,
      "甩": 3799,
      "甪": 3800,
      "甫": 3801,
      "甬": 3802,
      "甭": 3803,
      "田": 3804,
      "由": 3805,
      "甲": 3806,
      "申": 3807,
      "电": 3808,
      "男": 3809,
      "甸": 3810,
      "町": 3811,
      "画": 3812,
      "甾": 3813,
      "畅": 3814,
      "畈": 3815,
      "界": 3816,
      "畏": 3817,
      "畔": 3818,
      "留": 3819,
      "畚": 3820,
      "畛": 3821,
      "畜": 3822,
      "略": 3823,
      "畦": 3824,
      "番": 3825,
      "畲": 3826,
      "畴": 3827,
      "當": 3828,
      "畸": 3829,
      "畹": 3830,
      "畿": 3831,
      "疃": 3832,
      "疆": 3833,
      "疏": 3834,
      "疑": 3835,
      "疒": 3836,
      "疔": 3837,
      "疖": 3838,
      "疗": 3839,
      "疙": 3840,
      "疚": 3841,
      "疝": 3842,
      "疟": 3843,
      "疠": 3844,
      "疡": 3845,
      "疣": 3846,
      "疤": 3847,
      "疥": 3848,
      "疫": 3849,
      "疮": 3850,
      "疯": 3851,
      "疱": 3852,
      "疲": 3853,
      "疳": 3854,
      "疴": 3855,
      "疵": 3856,
      "疸": 3857,
      "疹": 3858,
      "疼": 3859,
      "疽": 3860,
      "疾": 3861,
      "痂": 3862,
      "病": 3863,
      "症": 3864,
      "痈": 3865,
      "痉": 3866,
      "痊": 3867,
      "痌": 3868,
      "痍": 3869,
      "痒": 3870,
      "痔": 3871,
      "痕": 3872,
      "痘": 3873,
      "痛": 3874,
      "痞": 3875,
      "痢": 3876,
      "痣": 3877,
      "痤": 3878,
      "痦": 3879,
      "痧": 3880,
      "痨": 3881,
      "痪": 3882,
      "痫": 3883,
      "痰": 3884,
      "痱": 3885,
      "痲": 3886,
      "痳": 3887,
      "痴": 3888,
      "痹": 3889,
      "痺": 3890,
      "痼": 3891,
      "痿": 3892,
      "瘀": 3893,
      "瘁": 3894,
      "瘆": 3895,
      "瘊": 3896,
      "瘌": 3897,
      "瘐": 3898,
      "瘕": 3899,
      "瘘": 3900,
      "瘙": 3901,
      "瘛": 3902,
      "瘟": 3903,
      "瘠": 3904,
      "瘢": 3905,
      "瘤": 3906,
      "瘦": 3907,
      "瘩": 3908,
      "瘪": 3909,
      "瘫": 3910,
      "瘭": 3911,
      "瘳": 3912,
      "瘴": 3913,
      "瘵": 3914,
      "瘸": 3915,
      "瘾": 3916,
      "瘿": 3917,
      "癀": 3918,
      "療": 3919,
      "癌": 3920,
      "癍": 3921,
      "癔": 3922,
      "癖": 3923,
      "癜": 3924,
      "癞": 3925,
      "癢": 3926,
      "癣": 3927,
      "癥": 3928,
      "癨": 3929,
      "癫": 3930,
      "癸": 3931,
      "登": 3932,
      "發": 3933,
      "白": 3934,
      "百": 3935,
      "皂": 3936,
      "的": 3937,
      "皆": 3938,
      "皇": 3939,
      "皈": 3940,
      "皋": 3941,
      "皎": 3942,
      "皑": 3943,
      "皓": 3944,
      "皖": 3945,
      "皙": 3946,
      "皮": 3947,
      "皱": 3948,
      "皲": 3949,
      "皴": 3950,
      "皿": 3951,
      "盂": 3952,
      "盅": 3953,
      "盆": 3954,
      "盈": 3955,
      "益": 3956,
      "盎": 3957,
      "盏": 3958,
      "盐": 3959,
      "监": 3960,
      "盒": 3961,
      "盔": 3962,
      "盖": 3963,
      "盗": 3964,
      "盘": 3965,
      "盛": 3966,
      "盞": 3967,
      "盟": 3968,
      "盡": 3969,
      "盤": 3970,
      "盥": 3971,
      "目": 3972,
      "盯": 3973,
      "盱": 3974,
      "盲": 3975,
      "直": 3976,
      "相": 3977,
      "盹": 3978,
      "盼": 3979,
      "盾": 3980,
      "眀": 3981,
      "省": 3982,
      "眈": 3983,
      "眉": 3984,
      "看": 3985,
      "眙": 3986,
      "眜": 3987,
      "真": 3988,
      "眠": 3989,
      "眦": 3990,
      "眨": 3991,
      "眩": 3992,
      "眭": 3993,
      "眯": 3994,
      "眶": 3995,
      "眷": 3996,
      "眸": 3997,
      "眺": 3998,
      "眼": 3999,
      "着": 4000,
      "睁": 4001,
      "睇": 4002,
      "睐": 4003,
      "睑": 4004,
      "睚": 4005,
      "睛": 4006,
      "睡": 4007,
      "睢": 4008,
      "督": 4009,
      "睥": 4010,
      "睦": 4011,
      "睨": 4012,
      "睪": 4013,
      "睫": 4014,
      "睬": 4015,
      "睹": 4016,
      "睽": 4017,
      "睾": 4018,
      "睿": 4019,
      "瞄": 4020,
      "瞅": 4021,
      "瞋": 4022,
      "瞌": 4023,
      "瞎": 4024,
      "瞑": 4025,
      "瞒": 4026,
      "瞟": 4027,
      "瞠": 4028,
      "瞤": 4029,
      "瞥": 4030,
      "瞧": 4031,
      "瞩": 4032,
      "瞪": 4033,
      "瞬": 4034,
      "瞭": 4035,
      "瞰": 4036,
      "瞳": 4037,
      "瞻": 4038,
      "瞽": 4039,
      "瞿": 4040,
      "矍": 4041,
      "矗": 4042,
      "矛": 4043,
      "矜": 4044,
      "矢": 4045,
      "矣": 4046,
      "知": 4047,
      "矩": 4048,
      "矫": 4049,
      "短": 4050,
      "矮": 4051,
      "矯": 4052,
      "矲": 4053,
      "石": 4054,
      "矶": 4055,
      "矸": 4056,
      "矽": 4057,
      "矾": 4058,
      "矿": 4059,
      "砀": 4060,
      "码": 4061,
      "砂": 4062,
      "砌": 4063,
      "砍": 4064,
      "砑": 4065,
      "砒": 4066,
      "研": 4067,
      "砕": 4068,
      "砖": 4069,
      "砗": 4070,
      "砘": 4071,
      "砚": 4072,
      "砜": 4073,
      "砝": 4074,
      "砟": 4075,
      "砢": 4076,
      "砣": 4077,
      "砥": 4078,
      "砧": 4079,
      "砩": 4080,
      "砭": 4081,
      "砯": 4082,
      "砰": 4083,
      "破": 4084,
      "砷": 4085,
      "砸": 4086,
      "砺": 4087,
      "砻": 4088,
      "砼": 4089,
      "砾": 4090,
      "础": 4091,
      "硁": 4092,
      "硅": 4093,
      "硇": 4094,
      "硌": 4095,
      "硎": 4096,
      "硐": 4097,
      "硒": 4098,
      "硕": 4099,
      "硖": 4100,
      "硗": 4101,
      "硚": 4102,
      "硝": 4103,
      "硪": 4104,
      "硫": 4105,
      "硬": 4106,
      "确": 4107,
      "硷": 4108,
      "硼": 4109,
      "碇": 4110,
      "碉": 4111,
      "碌": 4112,
      "碍": 4113,
      "碎": 4114,
      "碑": 4115,
      "碓": 4116,
      "碕": 4117,
      "碗": 4118,
      "碘": 4119,
      "碚": 4120,
      "碛": 4121,
      "碜": 4122,
      "碟": 4123,
      "碣": 4124,
      "碧": 4125,
      "碰": 4126,
      "碱": 4127,
      "碳": 4128,
      "碴": 4129,
      "碶": 4130,
      "確": 4131,
      "碼": 4132,
      "碾": 4133,
      "磁": 4134,
      "磅": 4135,
      "磆": 4136,
      "磊": 4137,
      "磋": 4138,
      "磐": 4139,
      "磕": 4140,
      "磨": 4141,
      "磬": 4142,
      "磲": 4143,
      "磴": 4144,
      "磷": 4145,
      "磺": 4146,
      "礁": 4147,
      "礎": 4148,
      "礙": 4149,
      "礦": 4150,
      "礴": 4151,
      "示": 4152,
      "礼": 4153,
      "礽": 4154,
      "社": 4155,
      "祀": 4156,
      "祁": 4157,
      "祂": 4158,
      "祇": 4159,
      "祈": 4160,
      "祉": 4161,
      "祏": 4162,
      "祐": 4163,
      "祔": 4164,
      "祖": 4165,
      "祗": 4166,
      "祙": 4167,
      "祚": 4168,
      "祛": 4169,
      "祜": 4170,
      "祝": 4171,
      "神": 4172,
      "祟": 4173,
      "祠": 4174,
      "祢": 4175,
      "祥": 4176,
      "票": 4177,
      "祭": 4178,
      "祯": 4179,
      "祷": 4180,
      "祸": 4181,
      "祺": 4182,
      "禀": 4183,
      "禁": 4184,
      "禄": 4185,
      "禅": 4186,
      "福": 4187,
      "禛": 4188,
      "禦": 4189,
      "禧": 4190,
      "禮": 4191,
      "禳": 4192,
      "禸": 4193,
      "禹": 4194,
      "禺": 4195,
      "离": 4196,
      "禽": 4197,
      "禾": 4198,
      "秀": 4199,
      "私": 4200,
      "秂": 4201,
      "秃": 4202,
      "秆": 4203,
      "秉": 4204,
      "秋": 4205,
      "种": 4206,
      "科": 4207,
      "秒": 4208,
      "秕": 4209,
      "秘": 4210,
      "租": 4211,
      "秣": 4212,
      "秤": 4213,
      "秦": 4214,
      "秧": 4215,
      "秩": 4216,
      "秫": 4217,
      "秭": 4218,
      "积": 4219,
      "称": 4220,
      "秸": 4221,
      "移": 4222,
      "秽": 4223,
      "稀": 4224,
      "稃": 4225,
      "稅": 4226,
      "程": 4227,
      "稍": 4228,
      "税": 4229,
      "稔": 4230,
      "稗": 4231,
      "稚": 4232,
      "稜": 4233,
      "稞": 4234,
      "稠": 4235,
      "稣": 4236,
      "種": 4237,
      "稳": 4238,
      "稷": 4239,
      "稹": 4240,
      "稻": 4241,
      "稼": 4242,
      "稽": 4243,
      "稿": 4244,
      "穆": 4245,
      "穌": 4246,
      "積": 4247,
      "穏": 4248,
      "穑": 4249,
      "穗": 4250,
      "穢": 4251,
      "穰": 4252,
      "穴": 4253,
      "究": 4254,
      "穷": 4255,
      "穹": 4256,
      "空": 4257,
      "穿": 4258,
      "突": 4259,
      "窃": 4260,
      "窄": 4261,
      "窈": 4262,
      "窍": 4263,
      "窑": 4264,
      "窒": 4265,
      "窕": 4266,
      "窖": 4267,
      "窗": 4268,
      "窘": 4269,
      "窜": 4270,
      "窝": 4271,
      "窟": 4272,
      "窠": 4273,
      "窥": 4274,
      "窦": 4275,
      "窨": 4276,
      "窭": 4277,
      "窳": 4278,
      "窿": 4279,
      "立": 4280,
      "竖": 4281,
      "站": 4282,
      "竞": 4283,
      "竟": 4284,
      "章": 4285,
      "竣": 4286,
      "童": 4287,
      "竦": 4288,
      "竭": 4289,
      "端": 4290,
      "竹": 4291,
      "竺": 4292,
      "竽": 4293,
      "竿": 4294,
      "笃": 4295,
      "笆": 4296,
      "笈": 4297,
      "笊": 4298,
      "笋": 4299,
      "笏": 4300,
      "笑": 4301,
      "笔": 4302,
      "笕": 4303,
      "笙": 4304,
      "笛": 4305,
      "笞": 4306,
      "笠": 4307,
      "笤": 4308,
      "笥": 4309,
      "符": 4310,
      "笨": 4311,
      "笩": 4312,
      "笪": 4313,
      "笫": 4314,
      "第": 4315,
      "笮": 4316,
      "笳": 4317,
      "笸": 4318,
      "笹": 4319,
      "笺": 4320,
      "笼": 4321,
      "笾": 4322,
      "筆": 4323,
      "等": 4324,
      "筋": 4325,
      "筌": 4326,
      "筏": 4327,
      "筐": 4328,
      "筑": 4329,
      "筒": 4330,
      "答": 4331,
      "策": 4332,
      "筘": 4333,
      "筚": 4334,
      "筛": 4335,
      "筝": 4336,
      "筠": 4337,
      "筮": 4338,
      "筯": 4339,
      "筱": 4340,
      "筵": 4341,
      "筷": 4342,
      "筹": 4343,
      "筺": 4344,
      "签": 4345,
      "简": 4346,
      "箅": 4347,
      "箍": 4348,
      "箐": 4349,
      "箔": 4350,
      "箕": 4351,
      "算": 4352,
      "箜": 4353,
      "箝": 4354,
      "管": 4355,
      "箧": 4356,
      "箨": 4357,
      "箩": 4358,
      "箪": 4359,
      "箫": 4360,
      "箭": 4361,
      "箱": 4362,
      "箴": 4363,
      "箸": 4364,
      "節": 4365,
      "篁": 4366,
      "篆": 4367,
      "篇": 4368,
      "篌": 4369,
      "篑": 4370,
      "篓": 4371,
      "篙": 4372,
      "篚": 4373,
      "篝": 4374,
      "篡": 4375,
      "篦": 4376,
      "篩": 4377,
      "篮": 4378,
      "篱": 4379,
      "篷": 4380,
      "篾": 4381,
      "簇": 4382,
      "簋": 4383,
      "簌": 4384,
      "簦": 4385,
      "簧": 4386,
      "簪": 4387,
      "簸": 4388,
      "簿": 4389,
      "籀": 4390,
      "籁": 4391,
      "籍": 4392,
      "籣": 4393,
      "米": 4394,
      "类": 4395,
      "籼": 4396,
      "籽": 4397,
      "粉": 4398,
      "粑": 4399,
      "粒": 4400,
      "粕": 4401,
      "粗": 4402,
      "粘": 4403,
      "粜": 4404,
      "粝": 4405,
      "粟": 4406,
      "粢": 4407,
      "粤": 4408,
      "粥": 4409,
      "粪": 4410,
      "粮": 4411,
      "粱": 4412,
      "粲": 4413,
      "粳": 4414,
      "粹": 4415,
      "粽": 4416,
      "精": 4417,
      "糅": 4418,
      "糊": 4419,
      "糌": 4420,
      "糍": 4421,
      "糕": 4422,
      "糖": 4423,
      "糗": 4424,
      "糙": 4425,
      "糜": 4426,
      "糟": 4427,
      "糠": 4428,
      "糥": 4429,
      "糨": 4430,
      "糯": 4431,
      "糸": 4432,
      "系": 4433,
      "糼": 4434,
      "紀": 4435,
      "約": 4436,
      "紅": 4437,
      "紊": 4438,
      "納": 4439,
      "紙": 4440,
      "素": 4441,
      "索": 4442,
      "紧": 4443,
      "紫": 4444,
      "累": 4445,
      "細": 4446,
      "紹": 4447,
      "組": 4448,
      "結": 4449,
      "絡": 4450,
      "給": 4451,
      "絮": 4452,
      "絲": 4453,
      "絶": 4454,
      "經": 4455,
      "継": 4456,
      "綦": 4457,
      "維": 4458,
      "網": 4459,
      "綷": 4460,
      "緁": 4461,
      "緈": 4462,
      "緊": 4463,
      "緍": 4464,
      "線": 4465,
      "締": 4466,
      "緾": 4467,
      "縁": 4468,
      "縉": 4469,
      "縣": 4470,
      "縮": 4471,
      "縱": 4472,
      "縳": 4473,
      "縻": 4474,
      "總": 4475,
      "繁": 4476,
      "繇": 4477,
      "織": 4478,
      "繼": 4479,
      "纂": 4480,
      "纆": 4481,
      "續": 4482,
      "纏": 4483,
      "纔": 4484,
      "纠": 4485,
      "纡": 4486,
      "红": 4487,
      "纣": 4488,
      "纤": 4489,
      "纥": 4490,
      "约": 4491,
      "级": 4492,
      "纨": 4493,
      "纪": 4494,
      "纫": 4495,
      "纬": 4496,
      "纭": 4497,
      "纯": 4498,
      "纰": 4499,
      "纱": 4500,
      "纲": 4501,
      "纳": 4502,
      "纵": 4503,
      "纶": 4504,
      "纷": 4505,
      "纸": 4506,
      "纹": 4507,
      "纺": 4508,
      "纽": 4509,
      "纾": 4510,
      "线": 4511,
      "绀": 4512,
      "绁": 4513,
      "练": 4514,
      "组": 4515,
      "绅": 4516,
      "细": 4517,
      "织": 4518,
      "终": 4519,
      "绉": 4520,
      "绊": 4521,
      "绌": 4522,
      "绍": 4523,
      "绎": 4524,
      "经": 4525,
      "绐": 4526,
      "绑": 4527,
      "绒": 4528,
      "结": 4529,
      "绔": 4530,
      "绕": 4531,
      "绘": 4532,
      "给": 4533,
      "绚": 4534,
      "绛": 4535,
      "络": 4536,
      "绝": 4537,
      "绞": 4538,
      "统": 4539,
      "绡": 4540,
      "绢": 4541,
      "绣": 4542,
      "绥": 4543,
      "绦": 4544,
      "继": 4545,
      "绨": 4546,
      "绩": 4547,
      "绪": 4548,
      "绫": 4549,
      "续": 4550,
      "绮": 4551,
      "绯": 4552,
      "绰": 4553,
      "绱": 4554,
      "绲": 4555,
      "绳": 4556,
      "维": 4557,
      "绵": 4558,
      "绶": 4559,
      "绷": 4560,
      "绸": 4561,
      "绺": 4562,
      "绻": 4563,
      "综": 4564,
      "绽": 4565,
      "绾": 4566,
      "绿": 4567,
      "缀": 4568,
      "缁": 4569,
      "缂": 4570,
      "缄": 4571,
      "缅": 4572,
      "缆": 4573,
      "缇": 4574,
      "缈": 4575,
      "缉": 4576,
      "缌": 4577,
      "缍": 4578,
      "缎": 4579,
      "缒": 4580,
      "缓": 4581,
      "缔": 4582,
      "缕": 4583,
      "编": 4584,
      "缗": 4585,
      "缘": 4586,
      "缙": 4587,
      "缚": 4588,
      "缛": 4589,
      "缜": 4590,
      "缝": 4591,
      "缟": 4592,
      "缠": 4593,
      "缢": 4594,
      "缤": 4595,
      "缥": 4596,
      "缦": 4597,
      "缨": 4598,
      "缩": 4599,
      "缪": 4600,
      "缬": 4601,
      "缭": 4602,
      "缮": 4603,
      "缯": 4604,
      "缰": 4605,
      "缱": 4606,
      "缳": 4607,
      "缴": 4608,
      "缶": 4609,
      "缸": 4610,
      "缺": 4611,
      "罂": 4612,
      "罄": 4613,
      "罅": 4614,
      "罐": 4615,
      "网": 4616,
      "罔": 4617,
      "罕": 4618,
      "罗": 4619,
      "罘": 4620,
      "罚": 4621,
      "罟": 4622,
      "罡": 4623,
      "罢": 4624,
      "罩": 4625,
      "罪": 4626,
      "置": 4627,
      "罱": 4628,
      "署": 4629,
      "罴": 4630,
      "罵": 4631,
      "罹": 4632,
      "羁": 4633,
      "羊": 4634,
      "羌": 4635,
      "美": 4636,
      "羔": 4637,
      "羙": 4638,
      "羚": 4639,
      "羝": 4640,
      "羞": 4641,
      "羟": 4642,
      "羡": 4643,
      "羣": 4644,
      "群": 4645,
      "羧": 4646,
      "羨": 4647,
      "義": 4648,
      "羯": 4649,
      "羰": 4650,
      "羲": 4651,
      "羸": 4652,
      "羹": 4653,
      "羼": 4654,
      "羽": 4655,
      "羿": 4656,
      "翁": 4657,
      "翅": 4658,
      "翊": 4659,
      "翌": 4660,
      "翎": 4661,
      "翔": 4662,
      "翕": 4663,
      "翘": 4664,
      "翟": 4665,
      "翠": 4666,
      "翡": 4667,
      "翥": 4668,
      "翦": 4669,
      "翩": 4670,
      "翰": 4671,
      "翱": 4672,
      "翳": 4673,
      "翹": 4674,
      "翻": 4675,
      "翼": 4676,
      "耀": 4677,
      "老": 4678,
      "考": 4679,
      "耄": 4680,
      "者": 4681,
      "耆": 4682,
      "耋": 4683,
      "而": 4684,
      "耍": 4685,
      "耐": 4686,
      "耒": 4687,
      "耔": 4688,
      "耕": 4689,
      "耗": 4690,
      "耘": 4691,
      "耙": 4692,
      "耜": 4693,
      "耦": 4694,
      "耧": 4695,
      "耨": 4696,
      "耳": 4697,
      "耵": 4698,
      "耶": 4699,
      "耷": 4700,
      "耸": 4701,
      "耻": 4702,
      "耽": 4703,
      "耿": 4704,
      "聂": 4705,
      "聆": 4706,
      "聊": 4707,
      "聋": 4708,
      "职": 4709,
      "聍": 4710,
      "聒": 4711,
      "联": 4712,
      "聖": 4713,
      "聘": 4714,
      "聚": 4715,
      "聩": 4716,
      "聪": 4717,
      "聯": 4718,
      "聿": 4719,
      "肃": 4720,
      "肄": 4721,
      "肆": 4722,
      "肇": 4723,
      "肉": 4724,
      "肋": 4725,
      "肌": 4726,
      "肓": 4727,
      "肖": 4728,
      "肘": 4729,
      "肚": 4730,
      "肛": 4731,
      "肜": 4732,
      "肝": 4733,
      "肟": 4734,
      "肠": 4735,
      "股": 4736,
      "肢": 4737,
      "肤": 4738,
      "肥": 4739,
      "肩": 4740,
      "肪": 4741,
      "肫": 4742,
      "肮": 4743,
      "肯": 4744,
      "肱": 4745,
      "育": 4746,
      "肴": 4747,
      "肷": 4748,
      "肺": 4749,
      "肼": 4750,
      "肽": 4751,
      "肾": 4752,
      "肿": 4753,
      "胀": 4754,
      "胁": 4755,
      "胂": 4756,
      "胃": 4757,
      "胄": 4758,
      "胆": 4759,
      "背": 4760,
      "胍": 4761,
      "胎": 4762,
      "胖": 4763,
      "胗": 4764,
      "胙": 4765,
      "胚": 4766,
      "胛": 4767,
      "胜": 4768,
      "胝": 4769,
      "胞": 4770,
      "胡": 4771,
      "胤": 4772,
      "胥": 4773,
      "胧": 4774,
      "胨": 4775,
      "胪": 4776,
      "胫": 4777,
      "胬": 4778,
      "胭": 4779,
      "胯": 4780,
      "胰": 4781,
      "胱": 4782,
      "胳": 4783,
      "胴": 4784,
      "胶": 4785,
      "胸": 4786,
      "胺": 4787,
      "胼": 4788,
      "能": 4789,
      "脂": 4790,
      "脃": 4791,
      "脆": 4792,
      "脉": 4793,
      "脊": 4794,
      "脍": 4795,
      "脏": 4796,
      "脐": 4797,
      "脑": 4798,
      "脒": 4799,
      "脓": 4800,
      "脖": 4801,
      "脘": 4802,
      "脚": 4803,
      "脣": 4804,
      "脯": 4805,
      "脱": 4806,
      "脲": 4807,
      "脶": 4808,
      "脸": 4809,
      "脹": 4810,
      "脾": 4811,
      "腆": 4812,
      "腈": 4813,
      "腊": 4814,
      "腋": 4815,
      "腌": 4816,
      "腐": 4817,
      "腑": 4818,
      "腓": 4819,
      "腔": 4820,
      "腕": 4821,
      "腘": 4822,
      "腚": 4823,
      "腠": 4824,
      "腥": 4825,
      "腧": 4826,
      "腩": 4827,
      "腫": 4828,
      "腭": 4829,
      "腮": 4830,
      "腰": 4831,
      "腱": 4832,
      "腴": 4833,
      "腹": 4834,
      "腺": 4835,
      "腻": 4836,
      "腼": 4837,
      "腾": 4838,
      "腿": 4839,
      "膀": 4840,
      "膂": 4841,
      "膈": 4842,
      "膉": 4843,
      "膊": 4844,
      "膍": 4845,
      "膏": 4846,
      "膑": 4847,
      "膕": 4848,
      "膘": 4849,
      "膚": 4850,
      "膛": 4851,
      "膜": 4852,
      "膝": 4853,
      "膠": 4854,
      "膣": 4855,
      "膦": 4856,
      "膨": 4857,
      "膳": 4858,
      "膺": 4859,
      "膻": 4860,
      "膿": 4861,
      "臀": 4862,
      "臁": 4863,
      "臂": 4864,
      "臃": 4865,
      "臆": 4866,
      "臉": 4867,
      "臊": 4868,
      "臌": 4869,
      "臜": 4870,
      "臣": 4871,
      "臥": 4872,
      "臧": 4873,
      "臨": 4874,
      "自": 4875,
      "臫": 4876,
      "臬": 4877,
      "臭": 4878,
      "至": 4879,
      "致": 4880,
      "臺": 4881,
      "臻": 4882,
      "臼": 4883,
      "臾": 4884,
      "舀": 4885,
      "舂": 4886,
      "舅": 4887,
      "舆": 4888,
      "與": 4889,
      "舉": 4890,
      "舌": 4891,
      "舍": 4892,
      "舐": 4893,
      "舒": 4894,
      "舔": 4895,
      "舛": 4896,
      "舜": 4897,
      "舞": 4898,
      "舟": 4899,
      "舢": 4900,
      "舨": 4901,
      "航": 4902,
      "舫": 4903,
      "般": 4904,
      "舯": 4905,
      "舰": 4906,
      "舱": 4907,
      "舳": 4908,
      "舵": 4909,
      "舶": 4910,
      "舷": 4911,
      "舸": 4912,
      "船": 4913,
      "舻": 4914,
      "艄": 4915,
      "艇": 4916,
      "艉": 4917,
      "艏": 4918,
      "艘": 4919,
      "艚": 4920,
      "艮": 4921,
      "良": 4922,
      "艰": 4923,
      "色": 4924,
      "艳": 4925,
      "艹": 4926,
      "艺": 4927,
      "艽": 4928,
      "艾": 4929,
      "艿": 4930,
      "节": 4931,
      "芃": 4932,
      "芄": 4933,
      "芈": 4934,
      "芊": 4935,
      "芋": 4936,
      "芍": 4937,
      "芎": 4938,
      "芐": 4939,
      "芑": 4940,
      "芒": 4941,
      "芗": 4942,
      "芘": 4943,
      "芙": 4944,
      "芜": 4945,
      "芝": 4946,
      "芟": 4947,
      "芡": 4948,
      "芥": 4949,
      "芦": 4950,
      "芨": 4951,
      "芩": 4952,
      "芪": 4953,
      "芫": 4954,
      "芬": 4955,
      "芭": 4956,
      "芮": 4957,
      "芯": 4958,
      "芰": 4959,
      "花": 4960,
      "芳": 4961,
      "芷": 4962,
      "芸": 4963,
      "芹": 4964,
      "芽": 4965,
      "芾": 4966,
      "苁": 4967,
      "苄": 4968,
      "苇": 4969,
      "苊": 4970,
      "苋": 4971,
      "苌": 4972,
      "苍": 4973,
      "苎": 4974,
      "苏": 4975,
      "苐": 4976,
      "苑": 4977,
      "苒": 4978,
      "苓": 4979,
      "苔": 4980,
      "苕": 4981,
      "苖": 4982,
      "苗": 4983,
      "苛": 4984,
      "苜": 4985,
      "苞": 4986,
      "苟": 4987,
      "苡": 4988,
      "苣": 4989,
      "苤": 4990,
      "若": 4991,
      "苦": 4992,
      "苭": 4993,
      "苯": 4994,
      "英": 4995,
      "苴": 4996,
      "苷": 4997,
      "苸": 4998,
      "苹": 4999,
      "茁": 5000,
      "茂": 5001,
      "范": 5002,
      "茄": 5003,
      "茅": 5004,
      "茆": 5005,
      "茉": 5006,
      "茎": 5007,
      "茏": 5008,
      "茔": 5009,
      "茕": 5010,
      "茗": 5011,
      "茚": 5012,
      "茛": 5013,
      "茜": 5014,
      "茧": 5015,
      "茨": 5016,
      "茫": 5017,
      "茬": 5018,
      "茭": 5019,
      "茯": 5020,
      "茱": 5021,
      "茴": 5022,
      "茵": 5023,
      "茶": 5024,
      "茸": 5025,
      "茹": 5026,
      "茺": 5027,
      "茼": 5028,
      "荀": 5029,
      "荃": 5030,
      "荅": 5031,
      "荆": 5032,
      "草": 5033,
      "荊": 5034,
      "荏": 5035,
      "荐": 5036,
      "荑": 5037,
      "荒": 5038,
      "荓": 5039,
      "荔": 5040,
      "荗": 5041,
      "荚": 5042,
      "荜": 5043,
      "荞": 5044,
      "荟": 5045,
      "荠": 5046,
      "荡": 5047,
      "荣": 5048,
      "荤": 5049,
      "荥": 5050,
      "荦": 5051,
      "荧": 5052,
      "荨": 5053,
      "荩": 5054,
      "荪": 5055,
      "荫": 5056,
      "药": 5057,
      "荷": 5058,
      "荸": 5059,
      "荻": 5060,
      "荼": 5061,
      "荽": 5062,
      "莅": 5063,
      "莆": 5064,
      "莉": 5065,
      "莊": 5066,
      "莎": 5067,
      "莓": 5068,
      "莖": 5069,
      "莘": 5070,
      "莜": 5071,
      "莞": 5072,
      "莠": 5073,
      "莨": 5074,
      "莪": 5075,
      "莫": 5076,
      "莮": 5077,
      "莰": 5078,
      "莱": 5079,
      "莲": 5080,
      "莳": 5081,
      "莴": 5082,
      "莶": 5083,
      "获": 5084,
      "莸": 5085,
      "莹": 5086,
      "莺": 5087,
      "莼": 5088,
      "莽": 5089,
      "菁": 5090,
      "菅": 5091,
      "菇": 5092,
      "菊": 5093,
      "菌": 5094,
      "菏": 5095,
      "菔": 5096,
      "菖": 5097,
      "菘": 5098,
      "菜": 5099,
      "菟": 5100,
      "菠": 5101,
      "菡": 5102,
      "菩": 5103,
      "菪": 5104,
      "華": 5105,
      "菰": 5106,
      "菱": 5107,
      "菲": 5108,
      "菸": 5109,
      "菽": 5110,
      "菿": 5111,
      "萁": 5112,
      "萃": 5113,
      "萄": 5114,
      "萆": 5115,
      "萋": 5116,
      "萌": 5117,
      "萍": 5118,
      "萎": 5119,
      "萏": 5120,
      "萘": 5121,
      "萜": 5122,
      "萝": 5123,
      "萡": 5124,
      "萤": 5125,
      "营": 5126,
      "萦": 5127,
      "萧": 5128,
      "萨": 5129,
      "萬": 5130,
      "萱": 5131,
      "萸": 5132,
      "萼": 5133,
      "落": 5134,
      "葆": 5135,
      "葉": 5136,
      "葑": 5137,
      "著": 5138,
      "葚": 5139,
      "葛": 5140,
      "葜": 5141,
      "葡": 5142,
      "董": 5143,
      "葩": 5144,
      "葫": 5145,
      "葬": 5146,
      "葭": 5147,
      "葯": 5148,
      "葱": 5149,
      "葳": 5150,
      "葵": 5151,
      "葶": 5152,
      "葺": 5153,
      "蒂": 5154,
      "蒇": 5155,
      "蒋": 5156,
      "蒌": 5157,
      "蒎": 5158,
      "蒗": 5159,
      "蒙": 5160,
      "蒜": 5161,
      "蒟": 5162,
      "蒡": 5163,
      "蒯": 5164,
      "蒲": 5165,
      "蒳": 5166,
      "蒴": 5167,
      "蒸": 5168,
      "蒺": 5169,
      "蒻": 5170,
      "蒽": 5171,
      "蒿": 5172,
      "蓁": 5173,
      "蓄": 5174,
      "蓉": 5175,
      "蓊": 5176,
      "蓋": 5177,
      "蓍": 5178,
      "蓐": 5179,
      "蓑": 5180,
      "蓓": 5181,
      "蓖": 5182,
      "蓜": 5183,
      "蓝": 5184,
      "蓟": 5185,
      "蓠": 5186,
      "蓣": 5187,
      "蓦": 5188,
      "蓬": 5189,
      "蓷": 5190,
      "蓼": 5191,
      "蓿": 5192,
      "蔀": 5193,
      "蔑": 5194,
      "蔓": 5195,
      "蔗": 5196,
      "蔘": 5197,
      "蔚": 5198,
      "蔡": 5199,
      "蔫": 5200,
      "蔬": 5201,
      "蔴": 5202,
      "蔷": 5203,
      "蔺": 5204,
      "蔻": 5205,
      "蔼": 5206,
      "蔽": 5207,
      "蕃": 5208,
      "蕈": 5209,
      "蕉": 5210,
      "蕊": 5211,
      "蕖": 5212,
      "蕗": 5213,
      "蕙": 5214,
      "蕞": 5215,
      "蕨": 5216,
      "蕴": 5217,
      "蕹": 5218,
      "蕻": 5219,
      "蕾": 5220,
      "薄": 5221,
      "薇": 5222,
      "薏": 5223,
      "薛": 5224,
      "薜": 5225,
      "薢": 5226,
      "薤": 5227,
      "薦": 5228,
      "薨": 5229,
      "薪": 5230,
      "薫": 5231,
      "薬": 5232,
      "薮": 5233,
      "薯": 5234,
      "薰": 5235,
      "薷": 5236,
      "薹": 5237,
      "藉": 5238,
      "藏": 5239,
      "藐": 5240,
      "藓": 5241,
      "藕": 5242,
      "藜": 5243,
      "藤": 5244,
      "藥": 5245,
      "藩": 5246,
      "藴": 5247,
      "藻": 5248,
      "藿": 5249,
      "蘅": 5250,
      "蘋": 5251,
      "蘑": 5252,
      "蘖": 5253,
      "蘘": 5254,
      "蘚": 5255,
      "蘩": 5256,
      "蘭": 5257,
      "蘸": 5258,
      "蘼": 5259,
      "虎": 5260,
      "虏": 5261,
      "虐": 5262,
      "虑": 5263,
      "虔": 5264,
      "處": 5265,
      "虚": 5266,
      "虞": 5267,
      "號": 5268,
      "虢": 5269,
      "虫": 5270,
      "虬": 5271,
      "虱": 5272,
      "虹": 5273,
      "虻": 5274,
      "虼": 5275,
      "虽": 5276,
      "虾": 5277,
      "虿": 5278,
      "蚀": 5279,
      "蚁": 5280,
      "蚂": 5281,
      "蚊": 5282,
      "蚋": 5283,
      "蚌": 5284,
      "蚍": 5285,
      "蚓": 5286,
      "蚕": 5287,
      "蚜": 5288,
      "蚝": 5289,
      "蚡": 5290,
      "蚣": 5291,
      "蚤": 5292,
      "蚧": 5293,
      "蚨": 5294,
      "蚩": 5295,
      "蚪": 5296,
      "蚬": 5297,
      "蚯": 5298,
      "蚰": 5299,
      "蚱": 5300,
      "蚴": 5301,
      "蚵": 5302,
      "蚶": 5303,
      "蛀": 5304,
      "蛄": 5305,
      "蛆": 5306,
      "蛇": 5307,
      "蛉": 5308,
      "蛊": 5309,
      "蛋": 5310,
      "蛎": 5311,
      "蛏": 5312,
      "蛐": 5313,
      "蛔": 5314,
      "蛘": 5315,
      "蛙": 5316,
      "蛛": 5317,
      "蛞": 5318,
      "蛟": 5319,
      "蛤": 5320,
      "蛩": 5321,
      "蛭": 5322,
      "蛮": 5323,
      "蛰": 5324,
      "蛲": 5325,
      "蛳": 5326,
      "蛴": 5327,
      "蛸": 5328,
      "蛹": 5329,
      "蛾": 5330,
      "蜀": 5331,
      "蜂": 5332,
      "蜃": 5333,
      "蜇": 5334,
      "蜈": 5335,
      "蜉": 5336,
      "蜊": 5337,
      "蜍": 5338,
      "蜒": 5339,
      "蜓": 5340,
      "蜕": 5341,
      "蜗": 5342,
      "蜘": 5343,
      "蜚": 5344,
      "蜜": 5345,
      "蜞": 5346,
      "蜡": 5347,
      "蜢": 5348,
      "蜣": 5349,
      "蜥": 5350,
      "蜮": 5351,
      "蜱": 5352,
      "蜴": 5353,
      "蜷": 5354,
      "蜻": 5355,
      "蜿": 5356,
      "蝇": 5357,
      "蝈": 5358,
      "蝉": 5359,
      "蝌": 5360,
      "蝎": 5361,
      "蝓": 5362,
      "蝗": 5363,
      "蝙": 5364,
      "蝠": 5365,
      "蝣": 5366,
      "蝤": 5367,
      "蝥": 5368,
      "蝮": 5369,
      "蝰": 5370,
      "蝲": 5371,
      "蝴": 5372,
      "蝶": 5373,
      "蝼": 5374,
      "蝾": 5375,
      "螂": 5376,
      "螃": 5377,
      "螅": 5378,
      "螈": 5379,
      "螋": 5380,
      "融": 5381,
      "螓": 5382,
      "螟": 5383,
      "螨": 5384,
      "螫": 5385,
      "螯": 5386,
      "螳": 5387,
      "螵": 5388,
      "螺": 5389,
      "蟀": 5390,
      "蟆": 5391,
      "蟊": 5392,
      "蟋": 5393,
      "蟑": 5394,
      "蟒": 5395,
      "蟛": 5396,
      "蟠": 5397,
      "蟪": 5398,
      "蟮": 5399,
      "蟹": 5400,
      "蟾": 5401,
      "蠃": 5402,
      "蠊": 5403,
      "蠓": 5404,
      "蠕": 5405,
      "蠖": 5406,
      "蠡": 5407,
      "蠢": 5408,
      "蠲": 5409,
      "蠹": 5410,
      "蠼": 5411,
      "血": 5412,
      "衄": 5413,
      "衅": 5414,
      "行": 5415,
      "衍": 5416,
      "術": 5417,
      "衔": 5418,
      "街": 5419,
      "衙": 5420,
      "衡": 5421,
      "衢": 5422,
      "衣": 5423,
      "衤": 5424,
      "补": 5425,
      "表": 5426,
      "衩": 5427,
      "衪": 5428,
      "衫": 5429,
      "衬": 5430,
      "衮": 5431,
      "衰": 5432,
      "衲": 5433,
      "衷": 5434,
      "衹": 5435,
      "衽": 5436,
      "衾": 5437,
      "衿": 5438,
      "袁": 5439,
      "袂": 5440,
      "袄": 5441,
      "袅": 5442,
      "袈": 5443,
      "袋": 5444,
      "袍": 5445,
      "袒": 5446,
      "袖": 5447,
      "袜": 5448,
      "袢": 5449,
      "袤": 5450,
      "袪": 5451,
      "被": 5452,
      "袭": 5453,
      "袮": 5454,
      "袱": 5455,
      "袴": 5456,
      "袼": 5457,
      "裀": 5458,
      "裁": 5459,
      "裂": 5460,
      "装": 5461,
      "裆": 5462,
      "裉": 5463,
      "裏": 5464,
      "裒": 5465,
      "裔": 5466,
      "裕": 5467,
      "裘": 5468,
      "裙": 5469,
      "補": 5470,
      "裝": 5471,
      "裞": 5472,
      "裟": 5473,
      "裡": 5474,
      "裢": 5475,
      "裤": 5476,
      "裨": 5477,
      "裱": 5478,
      "裳": 5479,
      "裴": 5480,
      "裸": 5481,
      "裹": 5482,
      "裼": 5483,
      "製": 5484,
      "裾": 5485,
      "褂": 5486,
      "褊": 5487,
      "褐": 5488,
      "褒": 5489,
      "褓": 5490,
      "褙": 5491,
      "褚": 5492,
      "褛": 5493,
      "褥": 5494,
      "褪": 5495,
      "褫": 5496,
      "褲": 5497,
      "褴": 5498,
      "褶": 5499,
      "襁": 5500,
      "襄": 5501,
      "襞": 5502,
      "襟": 5503,
      "襦": 5504,
      "襲": 5505,
      "襻": 5506,
      "西": 5507,
      "要": 5508,
      "覃": 5509,
      "覆": 5510,
      "見": 5511,
      "親": 5512,
      "覺": 5513,
      "觀": 5514,
      "见": 5515,
      "观": 5516,
      "规": 5517,
      "觅": 5518,
      "视": 5519,
      "觇": 5520,
      "览": 5521,
      "觉": 5522,
      "觊": 5523,
      "觍": 5524,
      "觎": 5525,
      "觐": 5526,
      "觑": 5527,
      "角": 5528,
      "觜": 5529,
      "觞": 5530,
      "解": 5531,
      "觥": 5532,
      "触": 5533,
      "觭": 5534,
      "觯": 5535,
      "觸": 5536,
      "言": 5537,
      "訇": 5538,
      "討": 5539,
      "記": 5540,
      "訢": 5541,
      "設": 5542,
      "訴": 5543,
      "註": 5544,
      "証": 5545,
      "訾": 5546,
      "詈": 5547,
      "詑": 5548,
      "詛": 5549,
      "詞": 5550,
      "試": 5551,
      "話": 5552,
      "該": 5553,
      "詳": 5554,
      "詹": 5555,
      "誉": 5556,
      "誊": 5557,
      "誌": 5558,
      "認": 5559,
      "誓": 5560,
      "語": 5561,
      "說": 5562,
      "説": 5563,
      "誰": 5564,
      "課": 5565,
      "誶": 5566,
      "調": 5567,
      "請": 5568,
      "論": 5569,
      "諨": 5570,
      "諽": 5571,
      "諾": 5572,
      "謇": 5573,
      "謎": 5574,
      "講": 5575,
      "謝": 5576,
      "謿": 5577,
      "證": 5578,
      "識": 5579,
      "警": 5580,
      "譬": 5581,
      "議": 5582,
      "護": 5583,
      "變": 5584,
      "讓": 5585,
      "讠": 5586,
      "计": 5587,
      "订": 5588,
      "讣": 5589,
      "认": 5590,
      "讥": 5591,
      "讦": 5592,
      "讧": 5593,
      "讨": 5594,
      "让": 5595,
      "讪": 5596,
      "讫": 5597,
      "训": 5598,
      "议": 5599,
      "讯": 5600,
      "记": 5601,
      "讲": 5602,
      "讳": 5603,
      "讴": 5604,
      "讵": 5605,
      "讶": 5606,
      "讷": 5607,
      "许": 5608,
      "讹": 5609,
      "论": 5610,
      "讼": 5611,
      "讽": 5612,
      "设": 5613,
      "访": 5614,
      "诀": 5615,
      "证": 5616,
      "诂": 5617,
      "诃": 5618,
      "评": 5619,
      "诅": 5620,
      "识": 5621,
      "诈": 5622,
      "诉": 5623,
      "诊": 5624,
      "诋": 5625,
      "诌": 5626,
      "词": 5627,
      "诎": 5628,
      "诏": 5629,
      "译": 5630,
      "诒": 5631,
      "诓": 5632,
      "诔": 5633,
      "试": 5634,
      "诖": 5635,
      "诗": 5636,
      "诘": 5637,
      "诙": 5638,
      "诚": 5639,
      "诛": 5640,
      "诜": 5641,
      "话": 5642,
      "诞": 5643,
      "诟": 5644,
      "诠": 5645,
      "诡": 5646,
      "询": 5647,
      "诣": 5648,
      "诤": 5649,
      "该": 5650,
      "详": 5651,
      "诧": 5652,
      "诨": 5653,
      "诩": 5654,
      "诫": 5655,
      "诬": 5656,
      "语": 5657,
      "诮": 5658,
      "误": 5659,
      "诰": 5660,
      "诱": 5661,
      "诲": 5662,
      "诳": 5663,
      "说": 5664,
      "诵": 5665,
      "诶": 5666,
      "请": 5667,
      "诸": 5668,
      "诺": 5669,
      "读": 5670,
      "诼": 5671,
      "诽": 5672,
      "课": 5673,
      "诿": 5674,
      "谀": 5675,
      "谁": 5676,
      "谂": 5677,
      "调": 5678,
      "谄": 5679,
      "谅": 5680,
      "谆": 5681,
      "谈": 5682,
      "谊": 5683,
      "谋": 5684,
      "谌": 5685,
      "谍": 5686,
      "谎": 5687,
      "谏": 5688,
      "谐": 5689,
      "谑": 5690,
      "谒": 5691,
      "谓": 5692,
      "谔": 5693,
      "谕": 5694,
      "谖": 5695,
      "谗": 5696,
      "谘": 5697,
      "谙": 5698,
      "谚": 5699,
      "谛": 5700,
      "谜": 5701,
      "谝": 5702,
      "谞": 5703,
      "谟": 5704,
      "谡": 5705,
      "谢": 5706,
      "谣": 5707,
      "谤": 5708,
      "谥": 5709,
      "谦": 5710,
      "谧": 5711,
      "谨": 5712,
      "谩": 5713,
      "谪": 5714,
      "谬": 5715,
      "谭": 5716,
      "谮": 5717,
      "谰": 5718,
      "谱": 5719,
      "谲": 5720,
      "谴": 5721,
      "谵": 5722,
      "谶": 5723,
      "谷": 5724,
      "豁": 5725,
      "豆": 5726,
      "豉": 5727,
      "豌": 5728,
      "豐": 5729,
      "豕": 5730,
      "豗": 5731,
      "豚": 5732,
      "象": 5733,
      "豢": 5734,
      "豪": 5735,
      "豫": 5736,
      "豬": 5737,
      "豸": 5738,
      "豹": 5739,
      "豺": 5740,
      "貂": 5741,
      "貅": 5742,
      "貉": 5743,
      "貊": 5744,
      "貌": 5745,
      "貔": 5746,
      "貘": 5747,
      "買": 5748,
      "費": 5749,
      "貼": 5750,
      "資": 5751,
      "賓": 5752,
      "賜": 5753,
      "賢": 5754,
      "賣": 5755,
      "質": 5756,
      "購": 5757,
      "贏": 5758,
      "贝": 5759,
      "贞": 5760,
      "负": 5761,
      "贡": 5762,
      "财": 5763,
      "责": 5764,
      "贤": 5765,
      "败": 5766,
      "账": 5767,
      "货": 5768,
      "质": 5769,
      "贩": 5770,
      "贪": 5771,
      "贫": 5772,
      "贬": 5773,
      "购": 5774,
      "贮": 5775,
      "贯": 5776,
      "贰": 5777,
      "贱": 5778,
      "贲": 5779,
      "贴": 5780,
      "贵": 5781,
      "贷": 5782,
      "贸": 5783,
      "费": 5784,
      "贺": 5785,
      "贻": 5786,
      "贼": 5787,
      "贽": 5788,
      "贾": 5789,
      "贿": 5790,
      "赀": 5791,
      "赁": 5792,
      "赂": 5793,
      "赃": 5794,
      "资": 5795,
      "赅": 5796,
      "赈": 5797,
      "赊": 5798,
      "赋": 5799,
      "赌": 5800,
      "赎": 5801,
      "赏": 5802,
      "赐": 5803,
      "赓": 5804,
      "赔": 5805,
      "赕": 5806,
      "赖": 5807,
      "赘": 5808,
      "赚": 5809,
      "赛": 5810,
      "赜": 5811,
      "赝": 5812,
      "赞": 5813,
      "赠": 5814,
      "赡": 5815,
      "赢": 5816,
      "赣": 5817,
      "赤": 5818,
      "赦": 5819,
      "赧": 5820,
      "赫": 5821,
      "赭": 5822,
      "走": 5823,
      "赳": 5824,
      "赴": 5825,
      "赵": 5826,
      "赶": 5827,
      "起": 5828,
      "赿": 5829,
      "趁": 5830,
      "趄": 5831,
      "超": 5832,
      "趆": 5833,
      "越": 5834,
      "趋": 5835,
      "趔": 5836,
      "趟": 5837,
      "趣": 5838,
      "足": 5839,
      "趴": 5840,
      "趵": 5841,
      "趸": 5842,
      "趺": 5843,
      "趾": 5844,
      "跃": 5845,
      "跄": 5846,
      "跆": 5847,
      "跋": 5848,
      "跌": 5849,
      "跎": 5850,
      "跑": 5851,
      "跖": 5852,
      "跗": 5853,
      "跚": 5854,
      "跛": 5855,
      "距": 5856,
      "跟": 5857,
      "跡": 5858,
      "跣": 5859,
      "跤": 5860,
      "跨": 5861,
      "跪": 5862,
      "跫": 5863,
      "路": 5864,
      "跲": 5865,
      "跳": 5866,
      "践": 5867,
      "跷": 5868,
      "跹": 5869,
      "跺": 5870,
      "跻": 5871,
      "跼": 5872,
      "踅": 5873,
      "踇": 5874,
      "踉": 5875,
      "踊": 5876,
      "踌": 5877,
      "踏": 5878,
      "踔": 5879,
      "踖": 5880,
      "踝": 5881,
      "踞": 5882,
      "踟": 5883,
      "踢": 5884,
      "踣": 5885,
      "踧": 5886,
      "踩": 5887,
      "踪": 5888,
      "踫": 5889,
      "踮": 5890,
      "踯": 5891,
      "踱": 5892,
      "踵": 5893,
      "踹": 5894,
      "踺": 5895,
      "踽": 5896,
      "蹁": 5897,
      "蹂": 5898,
      "蹄": 5899,
      "蹆": 5900,
      "蹈": 5901,
      "蹉": 5902,
      "蹊": 5903,
      "蹋": 5904,
      "蹑": 5905,
      "蹒": 5906,
      "蹙": 5907,
      "蹦": 5908,
      "蹩": 5909,
      "蹬": 5910,
      "蹭": 5911,
      "蹯": 5912,
      "蹰": 5913,
      "蹲": 5914,
      "蹴": 5915,
      "蹶": 5916,
      "蹼": 5917,
      "蹿": 5918,
      "躁": 5919,
      "躅": 5920,
      "躇": 5921,
      "躏": 5922,
      "身": 5923,
      "躬": 5924,
      "躯": 5925,
      "躲": 5926,
      "躺": 5927,
      "軟": 5928,
      "較": 5929,
      "載": 5930,
      "輔": 5931,
      "輕": 5932,
      "輿": 5933,
      "轉": 5934,
      "车": 5935,
      "轧": 5936,
      "轨": 5937,
      "轩": 5938,
      "转": 5939,
      "轭": 5940,
      "轮": 5941,
      "软": 5942,
      "轰": 5943,
      "轱": 5944,
      "轲": 5945,
      "轳": 5946,
      "轴": 5947,
      "轶": 5948,
      "轸": 5949,
      "轻": 5950,
      "轼": 5951,
      "载": 5952,
      "轾": 5953,
      "轿": 5954,
      "较": 5955,
      "辄": 5956,
      "辅": 5957,
      "辆": 5958,
      "辇": 5959,
      "辈": 5960,
      "辉": 5961,
      "辊": 5962,
      "辋": 5963,
      "辍": 5964,
      "辎": 5965,
      "辏": 5966,
      "辐": 5967,
      "辑": 5968,
      "输": 5969,
      "辔": 5970,
      "辕": 5971,
      "辖": 5972,
      "辗": 5973,
      "辘": 5974,
      "辙": 5975,
      "辛": 5976,
      "辜": 5977,
      "辞": 5978,
      "辟": 5979,
      "辣": 5980,
      "辤": 5981,
      "辦": 5982,
      "辨": 5983,
      "辩": 5984,
      "辫": 5985,
      "辰": 5986,
      "辱": 5987,
      "農": 5988,
      "辶": 5989,
      "边": 5990,
      "辻": 5991,
      "辽": 5992,
      "达": 5993,
      "迁": 5994,
      "迂": 5995,
      "迄": 5996,
      "迅": 5997,
      "迆": 5998,
      "过": 5999,
      "迈": 6000,
      "迎": 6001,
      "运": 6002,
      "近": 6003,
      "返": 6004,
      "还": 6005,
      "这": 6006,
      "进": 6007,
      "远": 6008,
      "违": 6009,
      "连": 6010,
      "迟": 6011,
      "迢": 6012,
      "迤": 6013,
      "迥": 6014,
      "迦": 6015,
      "迨": 6016,
      "迩": 6017,
      "迪": 6018,
      "迫": 6019,
      "迭": 6020,
      "迮": 6021,
      "述": 6022,
      "迳": 6023,
      "迷": 6024,
      "迸": 6025,
      "迹": 6026,
      "迻": 6027,
      "追": 6028,
      "退": 6029,
      "送": 6030,
      "适": 6031,
      "逃": 6032,
      "逄": 6033,
      "逅": 6034,
      "逆": 6035,
      "选": 6036,
      "逊": 6037,
      "逋": 6038,
      "逍": 6039,
      "透": 6040,
      "逐": 6041,
      "逑": 6042,
      "递": 6043,
      "途": 6044,
      "逖": 6045,
      "逗": 6046,
      "這": 6047,
      "通": 6048,
      "逛": 6049,
      "逝": 6050,
      "逞": 6051,
      "速": 6052,
      "造": 6053,
      "逡": 6054,
      "逢": 6055,
      "連": 6056,
      "逦": 6057,
      "逮": 6058,
      "逯": 6059,
      "週": 6060,
      "進": 6061,
      "逵": 6062,
      "逶": 6063,
      "逸": 6064,
      "逹": 6065,
      "逻": 6066,
      "逼": 6067,
      "逾": 6068,
      "遁": 6069,
      "遂": 6070,
      "遆": 6071,
      "遇": 6072,
      "運": 6073,
      "遍": 6074,
      "過": 6075,
      "遏": 6076,
      "遐": 6077,
      "遑": 6078,
      "遒": 6079,
      "道": 6080,
      "達": 6081,
      "違": 6082,
      "遗": 6083,
      "遘": 6084,
      "遛": 6085,
      "遜": 6086,
      "遠": 6087,
      "遢": 6088,
      "遣": 6089,
      "遥": 6090,
      "遨": 6091,
      "適": 6092,
      "遭": 6093,
      "遮": 6094,
      "遴": 6095,
      "遵": 6096,
      "選": 6097,
      "遽": 6098,
      "避": 6099,
      "邀": 6100,
      "邂": 6101,
      "邃": 6102,
      "還": 6103,
      "邈": 6104,
      "邊": 6105,
      "邋": 6106,
      "邑": 6107,
      "邓": 6108,
      "邕": 6109,
      "邙": 6110,
      "邛": 6111,
      "邝": 6112,
      "邢": 6113,
      "那": 6114,
      "邦": 6115,
      "邪": 6116,
      "邬": 6117,
      "邮": 6118,
      "邯": 6119,
      "邰": 6120,
      "邱": 6121,
      "邳": 6122,
      "邵": 6123,
      "邸": 6124,
      "邹": 6125,
      "邺": 6126,
      "邻": 6127,
      "郁": 6128,
      "郃": 6129,
      "郄": 6130,
      "郅": 6131,
      "郊": 6132,
      "郎": 6133,
      "郏": 6134,
      "郑": 6135,
      "郓": 6136,
      "郗": 6137,
      "郛": 6138,
      "郜": 6139,
      "郝": 6140,
      "郞": 6141,
      "郡": 6142,
      "郢": 6143,
      "郦": 6144,
      "郧": 6145,
      "部": 6146,
      "郫": 6147,
      "郭": 6148,
      "郯": 6149,
      "郴": 6150,
      "郸": 6151,
      "都": 6152,
      "鄂": 6153,
      "鄄": 6154,
      "鄌": 6155,
      "鄙": 6156,
      "鄞": 6157,
      "鄢": 6158,
      "鄣": 6159,
      "鄯": 6160,
      "鄱": 6161,
      "酆": 6162,
      "酉": 6163,
      "酊": 6164,
      "酋": 6165,
      "酌": 6166,
      "配": 6167,
      "酎": 6168,
      "酐": 6169,
      "酒": 6170,
      "酗": 6171,
      "酚": 6172,
      "酝": 6173,
      "酞": 6174,
      "酡": 6175,
      "酢": 6176,
      "酣": 6177,
      "酥": 6178,
      "酩": 6179,
      "酪": 6180,
      "酬": 6181,
      "酮": 6182,
      "酯": 6183,
      "酰": 6184,
      "酱": 6185,
      "酲": 6186,
      "酵": 6187,
      "酶": 6188,
      "酷": 6189,
      "酸": 6190,
      "酽": 6191,
      "酿": 6192,
      "醃": 6193,
      "醅": 6194,
      "醇": 6195,
      "醉": 6196,
      "醋": 6197,
      "醌": 6198,
      "醍": 6199,
      "醐": 6200,
      "醑": 6201,
      "醒": 6202,
      "醚": 6203,
      "醛": 6204,
      "醢": 6205,
      "醣": 6206,
      "醪": 6207,
      "醫": 6208,
      "醬": 6209,
      "醭": 6210,
      "醮": 6211,
      "醯": 6212,
      "醴": 6213,
      "醺": 6214,
      "釆": 6215,
      "采": 6216,
      "釉": 6217,
      "释": 6218,
      "里": 6219,
      "重": 6220,
      "野": 6221,
      "量": 6222,
      "金": 6223,
      "釜": 6224,
      "針": 6225,
      "釭": 6226,
      "釵": 6227,
      "鈊": 6228,
      "鈞": 6229,
      "鉨": 6230,
      "鉴": 6231,
      "銭": 6232,
      "銮": 6233,
      "銷": 6234,
      "銹": 6235,
      "鋆": 6236,
      "鋈": 6237,
      "鋒": 6238,
      "錞": 6239,
      "錢": 6240,
      "錦": 6241,
      "錧": 6242,
      "錫": 6243,
      "錯": 6244,
      "錾": 6245,
      "鍀": 6246,
      "鍉": 6247,
      "鍪": 6248,
      "鍵": 6249,
      "鎍": 6250,
      "鎏": 6251,
      "鎖": 6252,
      "鏓": 6253,
      "鏖": 6254,
      "鐆": 6255,
      "鐘": 6256,
      "鐴": 6257,
      "鐵": 6258,
      "鑫": 6259,
      "钅": 6260,
      "钇": 6261,
      "针": 6262,
      "钉": 6263,
      "钊": 6264,
      "钋": 6265,
      "钍": 6266,
      "钏": 6267,
      "钐": 6268,
      "钒": 6269,
      "钓": 6270,
      "钔": 6271,
      "钕": 6272,
      "钗": 6273,
      "钙": 6274,
      "钚": 6275,
      "钛": 6276,
      "钜": 6277,
      "钝": 6278,
      "钞": 6279,
      "钟": 6280,
      "钠": 6281,
      "钡": 6282,
      "钢": 6283,
      "钣": 6284,
      "钤": 6285,
      "钥": 6286,
      "钦": 6287,
      "钧": 6288,
      "钨": 6289,
      "钩": 6290,
      "钪": 6291,
      "钫": 6292,
      "钬": 6293,
      "钭": 6294,
      "钮": 6295,
      "钯": 6296,
      "钰": 6297,
      "钱": 6298,
      "钳": 6299,
      "钴": 6300,
      "钵": 6301,
      "钸": 6302,
      "钹": 6303,
      "钺": 6304,
      "钻": 6305,
      "钼": 6306,
      "钽": 6307,
      "钾": 6308,
      "钿": 6309,
      "铀": 6310,
      "铁": 6311,
      "铂": 6312,
      "铃": 6313,
      "铄": 6314,
      "铅": 6315,
      "铆": 6316,
      "铉": 6317,
      "铊": 6318,
      "铋": 6319,
      "铌": 6320,
      "铍": 6321,
      "铎": 6322,
      "铐": 6323,
      "铖": 6324,
      "铗": 6325,
      "铙": 6326,
      "铛": 6327,
      "铜": 6328,
      "铝": 6329,
      "铟": 6330,
      "铠": 6331,
      "铡": 6332,
      "铢": 6333,
      "铣": 6334,
      "铤": 6335,
      "铥": 6336,
      "铧": 6337,
      "铩": 6338,
      "铪": 6339,
      "铫": 6340,
      "铬": 6341,
      "铭": 6342,
      "铮": 6343,
      "铯": 6344,
      "铰": 6345,
      "铱": 6346,
      "铲": 6347,
      "铳": 6348,
      "铵": 6349,
      "银": 6350,
      "铷": 6351,
      "铸": 6352,
      "铹": 6353,
      "铺": 6354,
      "链": 6355,
      "铿": 6356,
      "销": 6357,
      "锁": 6358,
      "锂": 6359,
      "锄": 6360,
      "锅": 6361,
      "锆": 6362,
      "锇": 6363,
      "锈": 6364,
      "锉": 6365,
      "锋": 6366,
      "锌": 6367,
      "锍": 6368,
      "锏": 6369,
      "锐": 6370,
      "锑": 6371,
      "锒": 6372,
      "锓": 6373,
      "锔": 6374,
      "锕": 6375,
      "锗": 6376,
      "锘": 6377,
      "错": 6378,
      "锚": 6379,
      "锝": 6380,
      "锞": 6381,
      "锟": 6382,
      "锡": 6383,
      "锢": 6384,
      "锣": 6385,
      "锤": 6386,
      "锥": 6387,
      "锦": 6388,
      "锨": 6389,
      "锬": 6390,
      "锭": 6391,
      "键": 6392,
      "锯": 6393,
      "锰": 6394,
      "锱": 6395,
      "锲": 6396,
      "锴": 6397,
      "锵": 6398,
      "锶": 6399,
      "锷": 6400,
      "锹": 6401,
      "锺": 6402,
      "锻": 6403,
      "锾": 6404,
      "镀": 6405,
      "镁": 6406,
      "镂": 6407,
      "镃": 6408,
      "镅": 6409,
      "镇": 6410,
      "镉": 6411,
      "镊": 6412,
      "镌": 6413,
      "镍": 6414,
      "镏": 6415,
      "镐": 6416,
      "镑": 6417,
      "镒": 6418,
      "镓": 6419,
      "镔": 6420,
      "镕": 6421,
      "镖": 6422,
      "镗": 6423,
      "镙": 6424,
      "镚": 6425,
      "镛": 6426,
      "镜": 6427,
      "镞": 6428,
      "镢": 6429,
      "镣": 6430,
      "镫": 6431,
      "镬": 6432,
      "镭": 6433,
      "镯": 6434,
      "镰": 6435,
      "镲": 6436,
      "镳": 6437,
      "镶": 6438,
      "長": 6439,
      "长": 6440,
      "門": 6441,
      "開": 6442,
      "閒": 6443,
      "間": 6444,
      "關": 6445,
      "闞": 6446,
      "门": 6447,
      "闩": 6448,
      "闪": 6449,
      "闫": 6450,
      "闭": 6451,
      "问": 6452,
      "闯": 6453,
      "闰": 6454,
      "闱": 6455,
      "闲": 6456,
      "闳": 6457,
      "间": 6458,
      "闵": 6459,
      "闶": 6460,
      "闷": 6461,
      "闸": 6462,
      "闹": 6463,
      "闺": 6464,
      "闻": 6465,
      "闼": 6466,
      "闽": 6467,
      "闾": 6468,
      "闿": 6469,
      "阀": 6470,
      "阁": 6471,
      "阂": 6472,
      "阄": 6473,
      "阅": 6474,
      "阆": 6475,
      "阇": 6476,
      "阈": 6477,
      "阉": 6478,
      "阊": 6479,
      "阋": 6480,
      "阍": 6481,
      "阎": 6482,
      "阏": 6483,
      "阐": 6484,
      "阑": 6485,
      "阒": 6486,
      "阔": 6487,
      "阕": 6488,
      "阖": 6489,
      "阗": 6490,
      "阙": 6491,
      "阚": 6492,
      "阜": 6493,
      "队": 6494,
      "阡": 6495,
      "阪": 6496,
      "阮": 6497,
      "阱": 6498,
      "防": 6499,
      "阳": 6500,
      "阴": 6501,
      "阵": 6502,
      "阶": 6503,
      "阻": 6504,
      "阿": 6505,
      "陀": 6506,
      "陂": 6507,
      "附": 6508,
      "际": 6509,
      "陆": 6510,
      "陇": 6511,
      "陈": 6512,
      "陉": 6513,
      "陋": 6514,
      "陌": 6515,
      "降": 6516,
      "限": 6517,
      "陔": 6518,
      "陕": 6519,
      "陛": 6520,
      "陟": 6521,
      "陡": 6522,
      "院": 6523,
      "除": 6524,
      "陨": 6525,
      "险": 6526,
      "陪": 6527,
      "陰": 6528,
      "陲": 6529,
      "陴": 6530,
      "陵": 6531,
      "陶": 6532,
      "陷": 6533,
      "陽": 6534,
      "隅": 6535,
      "隆": 6536,
      "隋": 6537,
      "隍": 6538,
      "随": 6539,
      "隐": 6540,
      "隔": 6541,
      "隘": 6542,
      "隙": 6543,
      "際": 6544,
      "障": 6545,
      "隧": 6546,
      "隨": 6547,
      "隱": 6548,
      "隶": 6549,
      "隹": 6550,
      "隼": 6551,
      "隽": 6552,
      "难": 6553,
      "雀": 6554,
      "雁": 6555,
      "雄": 6556,
      "雅": 6557,
      "集": 6558,
      "雇": 6559,
      "雉": 6560,
      "雌": 6561,
      "雍": 6562,
      "雎": 6563,
      "雏": 6564,
      "雒": 6565,
      "雕": 6566,
      "雖": 6567,
      "雙": 6568,
      "雠": 6569,
      "離": 6570,
      "難": 6571,
      "雨": 6572,
      "雩": 6573,
      "雪": 6574,
      "雯": 6575,
      "雳": 6576,
      "零": 6577,
      "雷": 6578,
      "雹": 6579,
      "雾": 6580,
      "需": 6581,
      "霁": 6582,
      "霄": 6583,
      "霆": 6584,
      "震": 6585,
      "霈": 6586,
      "霉": 6587,
      "霍": 6588,
      "霎": 6589,
      "霏": 6590,
      "霓": 6591,
      "霖": 6592,
      "霜": 6593,
      "霞": 6594,
      "霪": 6595,
      "霭": 6596,
      "霰": 6597,
      "露": 6598,
      "霸": 6599,
      "霹": 6600,
      "霾": 6601,
      "靑": 6602,
      "青": 6603,
      "靓": 6604,
      "靖": 6605,
      "静": 6606,
      "靛": 6607,
      "非": 6608,
      "靠": 6609,
      "靡": 6610,
      "面": 6611,
      "靥": 6612,
      "革": 6613,
      "靳": 6614,
      "靴": 6615,
      "靶": 6616,
      "靼": 6617,
      "鞅": 6618,
      "鞋": 6619,
      "鞍": 6620,
      "鞑": 6621,
      "鞘": 6622,
      "鞠": 6623,
      "鞣": 6624,
      "鞥": 6625,
      "鞨": 6626,
      "鞫": 6627,
      "鞭": 6628,
      "鞯": 6629,
      "韌": 6630,
      "韠": 6631,
      "韦": 6632,
      "韧": 6633,
      "韩": 6634,
      "韪": 6635,
      "韬": 6636,
      "韭": 6637,
      "音": 6638,
      "韵": 6639,
      "韶": 6640,
      "預": 6641,
      "頓": 6642,
      "領": 6643,
      "頫": 6644,
      "頭": 6645,
      "頰": 6646,
      "頻": 6647,
      "顁": 6648,
      "顆": 6649,
      "題": 6650,
      "額": 6651,
      "類": 6652,
      "顯": 6653,
      "页": 6654,
      "顶": 6655,
      "顷": 6656,
      "项": 6657,
      "顺": 6658,
      "须": 6659,
      "顼": 6660,
      "顽": 6661,
      "顾": 6662,
      "顿": 6663,
      "颀": 6664,
      "颁": 6665,
      "颂": 6666,
      "预": 6667,
      "颅": 6668,
      "领": 6669,
      "颇": 6670,
      "颈": 6671,
      "颉": 6672,
      "颊": 6673,
      "颌": 6674,
      "颍": 6675,
      "颏": 6676,
      "颐": 6677,
      "频": 6678,
      "颓": 6679,
      "颔": 6680,
      "颖": 6681,
      "颗": 6682,
      "题": 6683,
      "颚": 6684,
      "颛": 6685,
      "颜": 6686,
      "额": 6687,
      "颞": 6688,
      "颠": 6689,
      "颡": 6690,
      "颢": 6691,
      "颤": 6692,
      "颦": 6693,
      "颧": 6694,
      "風": 6695,
      "颭": 6696,
      "飇": 6697,
      "风": 6698,
      "飑": 6699,
      "飒": 6700,
      "飓": 6701,
      "飕": 6702,
      "飘": 6703,
      "飙": 6704,
      "飚": 6705,
      "飛": 6706,
      "飞": 6707,
      "食": 6708,
      "飨": 6709,
      "飼": 6710,
      "飽": 6711,
      "養": 6712,
      "餍": 6713,
      "餐": 6714,
      "館": 6715,
      "餮": 6716,
      "餳": 6717,
      "餵": 6718,
      "饔": 6719,
      "饕": 6720,
      "饣": 6721,
      "饥": 6722,
      "饧": 6723,
      "饨": 6724,
      "饩": 6725,
      "饪": 6726,
      "饫": 6727,
      "饬": 6728,
      "饭": 6729,
      "饮": 6730,
      "饯": 6731,
      "饰": 6732,
      "饱": 6733,
      "饲": 6734,
      "饴": 6735,
      "饵": 6736,
      "饶": 6737,
      "饷": 6738,
      "饺": 6739,
      "饼": 6740,
      "饽": 6741,
      "饿": 6742,
      "馀": 6743,
      "馁": 6744,
      "馄": 6745,
      "馅": 6746,
      "馆": 6747,
      "馇": 6748,
      "馈": 6749,
      "馊": 6750,
      "馋": 6751,
      "馍": 6752,
      "馏": 6753,
      "馐": 6754,
      "馑": 6755,
      "馒": 6756,
      "馓": 6757,
      "馕": 6758,
      "首": 6759,
      "馗": 6760,
      "香": 6761,
      "馥": 6762,
      "馨": 6763,
      "馬": 6764,
      "馿": 6765,
      "駄": 6766,
      "駍": 6767,
      "駕": 6768,
      "騎": 6769,
      "騙": 6770,
      "騪": 6771,
      "驢": 6772,
      "马": 6773,
      "驭": 6774,
      "驮": 6775,
      "驯": 6776,
      "驰": 6777,
      "驱": 6778,
      "驳": 6779,
      "驴": 6780,
      "驵": 6781,
      "驶": 6782,
      "驷": 6783,
      "驸": 6784,
      "驹": 6785,
      "驻": 6786,
      "驼": 6787,
      "驽": 6788,
      "驾": 6789,
      "驿": 6790,
      "骁": 6791,
      "骂": 6792,
      "骄": 6793,
      "骅": 6794,
      "骆": 6795,
      "骇": 6796,
      "骈": 6797,
      "骊": 6798,
      "骋": 6799,
      "验": 6800,
      "骏": 6801,
      "骐": 6802,
      "骑": 6803,
      "骓": 6804,
      "骗": 6805,
      "骚": 6806,
      "骛": 6807,
      "骜": 6808,
      "骞": 6809,
      "骟": 6810,
      "骠": 6811,
      "骡": 6812,
      "骤": 6813,
      "骥": 6814,
      "骧": 6815,
      "骨": 6816,
      "骰": 6817,
      "骶": 6818,
      "骷": 6819,
      "骸": 6820,
      "骺": 6821,
      "骼": 6822,
      "髀": 6823,
      "髁": 6824,
      "髂": 6825,
      "髄": 6826,
      "髅": 6827,
      "髈": 6828,
      "髋": 6829,
      "髌": 6830,
      "髏": 6831,
      "髑": 6832,
      "髓": 6833,
      "體": 6834,
      "髖": 6835,
      "高": 6836,
      "髙": 6837,
      "髡": 6838,
      "髦": 6839,
      "髯": 6840,
      "髹": 6841,
      "髻": 6842,
      "鬃": 6843,
      "鬈": 6844,
      "鬓": 6845,
      "鬟": 6846,
      "鬣": 6847,
      "鬥": 6848,
      "鬯": 6849,
      "鬱": 6850,
      "鬻": 6851,
      "鬼": 6852,
      "魁": 6853,
      "魂": 6854,
      "魄": 6855,
      "魅": 6856,
      "魇": 6857,
      "魈": 6858,
      "魉": 6859,
      "魍": 6860,
      "魏": 6861,
      "魑": 6862,
      "魔": 6863,
      "魚": 6864,
      "鮀": 6865,
      "鱀": 6866,
      "鱼": 6867,
      "鱿": 6868,
      "鲁": 6869,
      "鲅": 6870,
      "鲆": 6871,
      "鲇": 6872,
      "鲈": 6873,
      "鲋": 6874,
      "鲍": 6875,
      "鲎": 6876,
      "鲐": 6877,
      "鲑": 6878,
      "鲚": 6879,
      "鲛": 6880,
      "鲜": 6881,
      "鲠": 6882,
      "鲡": 6883,
      "鲢": 6884,
      "鲣": 6885,
      "鲤": 6886,
      "鲥": 6887,
      "鲧": 6888,
      "鲨": 6889,
      "鲫": 6890,
      "鲭": 6891,
      "鲮": 6892,
      "鲱": 6893,
      "鲲": 6894,
      "鲵": 6895,
      "鲶": 6896,
      "鲷": 6897,
      "鲸": 6898,
      "鲺": 6899,
      "鳃": 6900,
      "鳄": 6901,
      "鳅": 6902,
      "鳌": 6903,
      "鳍": 6904,
      "鳏": 6905,
      "鳐": 6906,
      "鳔": 6907,
      "鳕": 6908,
      "鳖": 6909,
      "鳗": 6910,
      "鳘": 6911,
      "鳜": 6912,
      "鳝": 6913,
      "鳞": 6914,
      "鳟": 6915,
      "鳯": 6916,
      "鴞": 6917,
      "鸟": 6918,
      "鸠": 6919,
      "鸡": 6920,
      "鸢": 6921,
      "鸣": 6922,
      "鸥": 6923,
      "鸦": 6924,
      "鸨": 6925,
      "鸩": 6926,
      "鸪": 6927,
      "鸬": 6928,
      "鸭": 6929,
      "鸮": 6930,
      "鸯": 6931,
      "鸱": 6932,
      "鸳": 6933,
      "鸵": 6934,
      "鸶": 6935,
      "鸽": 6936,
      "鸾": 6937,
      "鸿": 6938,
      "鹁": 6939,
      "鹂": 6940,
      "鹃": 6941,
      "鹄": 6942,
      "鹅": 6943,
      "鹆": 6944,
      "鹈": 6945,
      "鹉": 6946,
      "鹊": 6947,
      "鹌": 6948,
      "鹏": 6949,
      "鹑": 6950,
      "鹕": 6951,
      "鹗": 6952,
      "鹘": 6953,
      "鹚": 6954,
      "鹜": 6955,
      "鹞": 6956,
      "鹟": 6957,
      "鹣": 6958,
      "鹤": 6959,
      "鹦": 6960,
      "鹧": 6961,
      "鹩": 6962,
      "鹫": 6963,
      "鹬": 6964,
      "鹭": 6965,
      "鹰": 6966,
      "鹳": 6967,
      "鹾": 6968,
      "鹿": 6969,
      "麂": 6970,
      "麋": 6971,
      "麒": 6972,
      "麓": 6973,
      "麗": 6974,
      "麝": 6975,
      "麟": 6976,
      "麣": 6977,
      "麦": 6978,
      "麸": 6979,
      "麹": 6980,
      "麻": 6981,
      "麼": 6982,
      "麽": 6983,
      "麾": 6984,
      "黃": 6985,
      "黄": 6986,
      "黍": 6987,
      "黎": 6988,
      "黏": 6989,
      "黑": 6990,
      "黒": 6991,
      "黔": 6992,
      "默": 6993,
      "黙": 6994,
      "黛": 6995,
      "黜": 6996,
      "黝": 6997,
      "點": 6998,
      "黟": 6999,
      "黠": 7000,
      "黢": 7001,
      "黥": 7002,
      "黧": 7003,
      "黩": 7004,
      "黯": 7005,
      "黱": 7006,
      "黴": 7007,
      "黵": 7008,
      "鼋": 7009,
      "鼍": 7010,
      "鼎": 7011,
      "鼐": 7012,
      "鼓": 7013,
      "鼗": 7014,
      "鼙": 7015,
      "鼠": 7016,
      "鼬": 7017,
      "鼶": 7018,
      "鼷": 7019,
      "鼹": 7020,
      "鼻": 7021,
      "鼾": 7022,
      "齁": 7023,
      "齊": 7024,
      "齐": 7025,
      "齑": 7026,
      "齡": 7027,
      "齩": 7028,
      "齿": 7029,
      "龀": 7030,
      "龃": 7031,
      "龄": 7032,
      "龅": 7033,
      "龆": 7034,
      "龇": 7035,
      "龈": 7036,
      "龉": 7037,
      "龊": 7038,
      "龋": 7039,
      "龌": 7040,
      "龘": 7041,
      "龙": 7042,
      "龚": 7043,
      "龛": 7044,
      "龟": 7045,
      "": 7046,
      "": 7047,
      "": 7048,
      "": 7049,
      "": 7050,
      "": 7051,
      "": 7052,
      "": 7053,
      "": 7054,
      "": 7055,
      "": 7056,
      "": 7057,
      "": 7058,
      "": 7059,
      "": 7060,
      "": 7061,
      "": 7062,
      "": 7063,
      "": 7064,
      "": 7065,
      "": 7066,
      "": 7067,
      "": 7068,
      "": 7069,
      "": 7070,
      "": 7071,
      "": 7072,
      "": 7073,
      "": 7074,
      "": 7075,
      "": 7076,
      "": 7077,
      "": 7078,
      "": 7079,
      "": 7080,
      "": 7081,
      "": 7082,
      "": 7083,
      "": 7084,
      "": 7085,
      "": 7086,
      "": 7087,
      "": 7088,
      "": 7089,
      "": 7090,
      "": 7091,
      "": 7092,
      "": 7093,
      "": 7094,
      "": 7095,
      "": 7096,
      "": 7097,
      "": 7098,
      "": 7099,
      "": 7100,
      "": 7101,
      "": 7102,
      "": 7103,
      "": 7104,
      "": 7105,
      "": 7106,
      "": 7107,
      "": 7108,
      "": 7109,
      "": 7110,
      "": 7111,
      "": 7112,
      "": 7113,
      "": 7114,
      "": 7115,
      "": 7116,
      "": 7117,
      "": 7118,
      "": 7119,
      "": 7120,
      "": 7121,
      "": 7122,
      "": 7123,
      "": 7124,
      "": 7125,
      "": 7126,
      "": 7127,
      "": 7128,
      "": 7129,
      "": 7130,
      "": 7131,
      "": 7132,
      "": 7133,
      "": 7134,
      "": 7135,
      "": 7136,
      "": 7137,
      "": 7138,
      "": 7139,
      "": 7140,
      "": 7141,
      "": 7142,
      "": 7143,
      "": 7144,
      "": 7145,
      "": 7146,
      "": 7147,
      "": 7148,
      "": 7149,
      "": 7150,
      "": 7151,
      "": 7152,
      "": 7153,
      "": 7154,
      "": 7155,
      "": 7156,
      "": 7157,
      "": 7158,
      "": 7159,
      "": 7160,
      "": 7161,
      "": 7162,
      "": 7163,
      "": 7164,
      "": 7165,
      "": 7166,
      "": 7167,
      "": 7168,
      "": 7169,
      "": 7170,
      "": 7171,
      "": 7172,
      "": 7173,
      "": 7174,
      "": 7175,
      "": 7176,
      "": 7177,
      "": 7178,
      "": 7179,
      "": 7180,
      "": 7181,
      "": 7182,
      "": 7183,
      "": 7184,
      "": 7185,
      "": 7186,
      "": 7187,
      "": 7188,
      "": 7189,
      "": 7190,
      "": 7191,
      "": 7192,
      "": 7193,
      "": 7194,
      "": 7195,
      "": 7196,
      "": 7197,
      "": 7198,
      "": 7199,
      "": 7200,
      "": 7201,
      "": 7202,
      "": 7203,
      "": 7204,
      "": 7205,
      "": 7206,
      "": 7207,
      "": 7208,
      "": 7209,
      "": 7210,
      "": 7211,
      "": 7212,
      "": 7213,
      "": 7214,
      "": 7215,
      "": 7216,
      "": 7217,
      "": 7218,
      "": 7219,
      "": 7220,
      "": 7221,
      "": 7222,
      "": 7223,
      "": 7224,
      "": 7225,
      "": 7226,
      "": 7227,
      "": 7228,
      "": 7229,
      "": 7230,
      "": 7231,
      "": 7232,
      "": 7233,
      "": 7234,
      "": 7235,
      "": 7236,
      "": 7237,
      "": 7238,
      "": 7239,
      "": 7240,
      "": 7241,
      "": 7242,
      "": 7243,
      "": 7244,
      "": 7245,
      "": 7246,
      "": 7247,
      "": 7248,
      "": 7249,
      "": 7250,
      "": 7251,
      "": 7252,
      "": 7253,
      "": 7254,
      "": 7255,
      "": 7256,
      "": 7257,
      "": 7258,
      "": 7259,
      "": 7260,
      "": 7261,
      "": 7262,
      "": 7263,
      "": 7264,
      "": 7265,
      "": 7266,
      "": 7267,
      "": 7268,
      "": 7269,
      "": 7270,
      "": 7271,
      "": 7272,
      "": 7273,
      "": 7274,
      "": 7275,
      "": 7276,
      "": 7277,
      "": 7278,
      "": 7279,
      "": 7280,
      "": 7281,
      "": 7282,
      "": 7283,
      "": 7284,
      "": 7285,
      "": 7286,
      "": 7287,
      "": 7288,
      "": 7289,
      "": 7290,
      "": 7291,
      "": 7292,
      "": 7293,
      "": 7294,
      "": 7295,
      "": 7296,
      "": 7297,
      "": 7298,
      "": 7299,
      "": 7300,
      "": 7301,
      "": 7302,
      "": 7303,
      "": 7304,
      "": 7305,
      "": 7306,
      "": 7307,
      "": 7308,
      "": 7309,
      "": 7310,
      "": 7311,
      "": 7312,
      "": 7313,
      "": 7314,
      "": 7315,
      "": 7316,
      "": 7317,
      "️": 7318,
      "﻿": 7319,
      "�": 7320,
      "👌": 7321,
      "😂": 7322,
      "😉": 7323,
      "😏": 7324,
      "😞": 7325,
      "😡": 7326,
      "😭": 7327,
      "😲": 7328,
      "😳": 7329,
      "😷": 7330,
      "🙏": 7331,
      "𣊬": 7332,
      "▁,": 7333,
      "▁。": 7334,
      "▁?": 7335,
      "▁\n": 7336,
      "▁我": 7337,
      "▁、": 7338,
      "▁.": 7339,
      "什么": 7340,
      "可以": 7341,
      "▁!": 7342,
      "一个": 7343,
      "没有": 7344,
      "▁不": 7345,
      "▁但": 7346,
      "▁这": 7347,
      "自己": 7348,
      "▁如": 7349,
      "怎么": 7350,
      "▁:": 7351,
      "▁你": 7352,
      "现在": 7353,
      "就是": 7354,
      "▁有": 7355,
      "▁在": 7356,
      "▁如果": 7357,
      "问题": 7358,
      "知道": 7359,
      "▁而": 7360,
      "不是": 7361,
      "▁)": 7362,
      "▁他": 7363,
      "因为": 7364,
      "时候": 7365,
      "▁一": 7366,
      "还是": 7367,
      "治疗": 7368,
      "▁可": 7369,
      "▁1": 7370,
      "▁”": 7371,
      "时间": 7372,
      "▁也": 7373,
      "▁是": 7374,
      "▁0": 7375,
      "▁所": 7376,
      "▁(": 7377,
      "▁那": 7378,
      "孩子": 7379,
      "朋友": 7380,
      "的人": 7381,
      "▁2": 7382,
      "▁但是": 7383,
      "▁“": 7384,
      "▁;": 7385,
      "我们": 7386,
      "▁所以": 7387,
      "需要": 7388,
      "可能": 7389,
      "的时候": 7390,
      "这个": 7391,
      "应该": 7392,
      "比较": 7393,
      "▁就": 7394,
      "你的": 7395,
      "▁请": 7396,
      "不能": 7397,
      "▁因为": 7398,
      "一下": 7399,
      "这样": 7400,
      "▁还": 7401,
      "我的": 7402,
      "好的": 7403,
      "工作": 7404,
      "▁只": 7405,
      "情况": 7406,
      "很多": 7407,
      "都是": 7408,
      "一些": 7409,
      "为什么": 7410,
      "不会": 7411,
      "的话": 7412,
      "公司": 7413,
      "▁对": 7414,
      "喜欢": 7415,
      "▁其": 7416,
      "▁要": 7417,
      "▁以": 7418,
      "人的": 7419,
      "▁最": 7420,
      "自己的": 7421,
      "▁3": 7422,
      "已经": 7423,
      "觉得": 7424,
      "▁现在": 7425,
      "方法": 7426,
      "▁当": 7427,
      "的是": 7428,
      "或者": 7429,
      "医院": 7430,
      "一定": 7431,
      "进行": 7432,
      "▁我们": 7433,
      "感觉": 7434,
      "▁她": 7435,
      "▁而且": 7436,
      "大家": 7437,
      "宝宝": 7438,
      "出现": 7439,
      "使用": 7440,
      "影响": 7441,
      "他们": 7442,
      "生活": 7443,
      "▁~": 7444,
      "选择": 7445,
      "一种": 7446,
      "不要": 7447,
      "建议": 7448,
      "▁可以": 7449,
      "一样": 7450,
      "一起": 7451,
      "注意": 7452,
      "东西": 7453,
      "▁5": 7454,
      "中国": 7455,
      "开始": 7456,
      "个人": 7457,
      "▁并": 7458,
      "一次": 7459,
      "出来": 7460,
      "谢谢": 7461,
      "如果": 7462,
      "如何": 7463,
      "主要": 7464,
      "关系": 7465,
      "不同": 7466,
      "原因": 7467,
      "也是": 7468,
      "他的": 7469,
      "▁从": 7470,
      "才能": 7471,
      "一点": 7472,
      "正常": 7473,
      "▁然": 7474,
      "一般": 7475,
      "上的": 7476,
      "不知道": 7477,
      "发生": 7478,
      "真的": 7479,
      "方面": 7480,
      "怎样": 7481,
      "希望": 7482,
      "▁这样": 7483,
      "通过": 7484,
      "发现": 7485,
      "多少": 7486,
      "效果": 7487,
      "▁可是": 7488,
      "▁4": 7489,
      "这种": 7490,
      "怎么办": 7491,
      "容易": 7492,
      "由于": 7493,
      "作用": 7494,
      "有什么": 7495,
      "▁第": 7496,
      "是什么": 7497,
      "个月": 7498,
      "▁请问": 7499,
      "系统": 7500,
      "中的": 7501,
      "大的": 7502,
      "▁然后": 7503,
      "▁因": 7504,
      "企业": 7505,
      "▁谢谢": 7506,
      "检查": 7507,
      "游戏": 7508,
      "专业": 7509,
      "的问题": 7510,
      "地方": 7511,
      "学习": 7512,
      "▁每": 7513,
      "重要": 7514,
      "▁大": 7515,
      "是否": 7516,
      "身体": 7517,
      "▁还有": 7518,
      "▁我想": 7519,
      "管理": 7520,
      "认为": 7521,
      "皮肤": 7522,
      "不好": 7523,
      "▁人": 7524,
      "以后": 7525,
      "发展": 7526,
      "一直": 7527,
      "患者": 7528,
      "就会": 7529,
      "告诉": 7530,
      "为了": 7531,
      "引起": 7532,
      "到了": 7533,
      "▁年": 7534,
      "非常": 7535,
      "▁用": 7536,
      "经常": 7537,
      "电脑": 7538,
      "▁一般": 7539,
      "社会": 7540,
      "同时": 7541,
      "▁想": 7542,
      "▁的": 7543,
      "造成": 7544,
      "是不是": 7545,
      "别人": 7546,
      "也不": 7547,
      "的事": 7548,
      "▁再": 7549,
      "单位": 7550,
      "▁它": 7551,
      "▁我的": 7552,
      "▁不过": 7553,
      "起来": 7554,
      "能力": 7555,
      "产生": 7556,
      "部分": 7557,
      "其他": 7558,
      "电话": 7559,
      "▁说": 7560,
      "▁就是": 7561,
      "手术": 7562,
      "国家": 7563,
      "看到": 7564,
      "世界": 7565,
      "男人": 7566,
      "特别": 7567,
      "▁\n我": 7568,
      "就可以": 7569,
      "▁》": 7570,
      "根据": 7571,
      "那个": 7572,
      "医生": 7573,
      "办法": 7574,
      "银行": 7575,
      "要求": 7576,
      "▁让": 7577,
      "功能": 7578,
      "解决": 7579,
      "▁后": 7580,
      "必须": 7581,
      "▁多": 7582,
      "市场": 7583,
      "直接": 7584,
      "之后": 7585,
      "你们": 7586,
      "▁比": 7587,
      "这些": 7588,
      "导致": 7589,
      "心理": 7590,
      "都有": 7591,
      "在一起": 7592,
      "了\n": 7593,
      "▁会": 7594,
      "▁不要": 7595,
      "还有": 7596,
      "方式": 7597,
      "哪些": 7598,
      "不到": 7599,
      "▁因此": 7600,
      "规定": 7601,
      "▁6": 7602,
      "经济": 7603,
      "▁这个": 7604,
      "最好": 7605,
      "安全": 7606,
      "▁另": 7607,
      "症状": 7608,
      "虽然": 7609,
      "▁这是": 7610,
      "两个": 7611,
      "结婚": 7612,
      "女人": 7613,
      "看看": 7614,
      "▁其实": 7615,
      "▁那么": 7616,
      "具体": 7617,
      "▁很": 7618,
      "是在": 7619,
      "服务": 7620,
      "▁他们": 7621,
      "会有": 7622,
      "基本": 7623,
      "▁没有": 7624,
      "以前": 7625,
      "技术": 7626,
      "健康": 7627,
      "请问": 7628,
      "那么": 7629,
      "过程": 7630,
      "目前": 7631,
      "有的": 7632,
      "来说": 7633,
      "来的": 7634,
      "了解": 7635,
      "投资": 7636,
      "▁即": 7637,
      "产品": 7638,
      "帮助": 7639,
      "感情": 7640,
      "▁小": 7641,
      "父母": 7642,
      "总是": 7643,
      "网上": 7644,
      "里面": 7645,
      "活动": 7646,
      "学校": 7647,
      "基金": 7648,
      "的\n": 7649,
      "关于": 7650,
      "▁建议": 7651,
      "▁-": 7652,
      "任何": 7653,
      "了一": 7654,
      "▁还是": 7655,
      "▁我是": 7656,
      "只是": 7657,
      "▁8": 7658,
      "学生": 7659,
      "无法": 7660,
      "▁\"": 7661,
      "给我": 7662,
      "▁为什么": 7663,
      "老公": 7664,
      "▁好": 7665,
      "之间": 7666,
      "结果": 7667,
      "用的": 7668,
      "▁9": 7669,
      "▁上": 7670,
      "▁或": 7671,
      "任务": 7672,
      "得到": 7673,
      "不了": 7674,
      "哪里": 7675,
      "疾病": 7676,
      "的一": 7677,
      "的情况": 7678,
      "性的": 7679,
      "不错": 7680,
      "条件": 7681,
      "能够": 7682,
      "存在": 7683,
      "自然": 7684,
      "甚至": 7685,
      "信息": 7686,
      "表现": 7687,
      "▁只要": 7688,
      "▁和": 7689,
      "严重": 7690,
      "▁比如": 7691,
      "▁怎么": 7692,
      "考虑": 7693,
      "▁使": 7694,
      "▁中": 7695,
      "处理": 7696,
      "价格": 7697,
      "哪个": 7698,
      "研究": 7699,
      "药物": 7700,
      "这么": 7701,
      "怀孕": 7702,
      "认识": 7703,
      "都不": 7704,
      "▁或者": 7705,
      "完全": 7706,
      "这样的": 7707,
      "提高": 7708,
      "环境": 7709,
      "▁天": 7710,
      "里的": 7711,
      "进入": 7712,
      "▁由于": 7713,
      "▁又": 7714,
      "女孩": 7715,
      "今天": 7716,
      "有关": 7717,
      "▁希望": 7718,
      "劳动": 7719,
      "▁无": 7720,
      "只有": 7721,
      "▁7": 7722,
      "增加": 7723,
      "控制": 7724,
      "运动": 7725,
      "▁到": 7726,
      "▁看": 7727,
      "是不": 7728,
      "形成": 7729,
      "▁这种": 7730,
      "▁一个": 7731,
      "▁《": 7732,
      "首先": 7733,
      "说的": 7734,
      "多的": 7735,
      "精神": 7736,
      "回答": 7737,
      "行为": 7738,
      "▁不知道": 7739,
      "属于": 7740,
      "▁当然": 7741,
      "晚上": 7742,
      "适合": 7743,
      "提供": 7744,
      "对方": 7745,
      "意思": 7746,
      "技能": 7747,
      "也有": 7748,
      "▁如果你": 7749,
      "很好": 7750,
      "简单": 7751,
      "有效": 7752,
      "▁把": 7753,
      "食物": 7754,
      "▁能": 7755,
      "大学": 7756,
      "▁都": 7757,
      "组织": 7758,
      "软件": 7759,
      "▁分": 7760,
      "作为": 7761,
      "合同": 7762,
      "因素": 7763,
      "具有": 7764,
      "北京": 7765,
      "包括": 7766,
      "现象": 7767,
      "▁\n你": 7768,
      "相信": 7769,
      "妈妈": 7770,
      "▁另外": 7771,
      "显示": 7772,
      "下载": 7773,
      "她的": 7774,
      "申请": 7775,
      "经验": 7776,
      "有没有": 7777,
      "网站": 7778,
      "▁后来": 7779,
      "▁本": 7780,
      "各位": 7781,
      "营养": 7782,
      "知识": 7783,
      "就不": 7784,
      "之前": 7785,
      "几天": 7786,
      "几个": 7787,
      "只能": 7788,
      "手机": 7789,
      "联系": 7790,
      "▁做": 7791,
      "肯定": 7792,
      "▁更": 7793,
      "改变": 7794,
      "平时": 7795,
      "推荐": 7796,
      "介绍": 7797,
      "费用": 7798,
      "神经": 7799,
      "美国": 7800,
      "老师": 7801,
      "▁应": 7802,
      "怎么样": 7803,
      "成功": 7804,
      "▁二": 7805,
      "成为": 7806,
      "那些": 7807,
      "事情": 7808,
      "▁最好": 7809,
      "各种": 7810,
      "资料": 7811,
      "▁同时": 7812,
      "准备": 7813,
      "有点": 7814,
      "保持": 7815,
      "交易": 7816,
      "有一": 7817,
      "长期": 7818,
      "的地方": 7819,
      "回事": 7820,
      "是一个": 7821,
      "习惯": 7822,
      "▁三": 7823,
      "▁虽然": 7824,
      "机会": 7825,
      "的时间": 7826,
      "一定要": 7827,
      "爱情": 7828,
      "▁月": 7829,
      "面的": 7830,
      "清楚": 7831,
      "伤害": 7832,
      "▁个": 7833,
      "分析": 7834,
      "说明": 7835,
      "子的": 7836,
      "毕业": 7837,
      "达到": 7838,
      "和我": 7839,
      "保险": 7840,
      "决定": 7841,
      "实际": 7842,
      "明显": 7843,
      "幸福": 7844,
      "接受": 7845,
      "细胞": 7846,
      "除了": 7847,
      "心里": 7848,
      "教育": 7849,
      "责任": 7850,
      "色的": 7851,
      "质量": 7852,
      "一个人": 7853,
      "▁为": 7854,
      "计算": 7855,
      "人员": 7856,
      "女性": 7857,
      "许多": 7858,
      "▁对于": 7859,
      "状态": 7860,
      "所有": 7861,
      "都会": 7862,
      "物质": 7863,
      "▁等": 7864,
      "生产": 7865,
      "好了": 7866,
      "感染": 7867,
      "变化": 7868,
      "左右": 7869,
      "的方法": 7870,
      "告诉我": 7871,
      "段时间": 7872,
      "▁应该": 7873,
      "基础": 7874,
      "的东西": 7875,
      "找到": 7876,
      "去了": 7877,
      "反应": 7878,
      "有些": 7879,
      "帮我": 7880,
      "▁你可以": 7881,
      "多了": 7882,
      "真正": 7883,
      "继续": 7884,
      "也会": 7885,
      "内容": 7886,
      "办理": 7887,
      "和他": 7888,
      "部门": 7889,
      "下来": 7890,
      "▁祝": 7891,
      "样的": 7892,
      "▁可能": 7893,
      "英语": 7894,
      "避免": 7895,
      "▁前": 7896,
      "的大": 7897,
      "家庭": 7898,
      "▁只是": 7899,
      "▁日": 7900,
      "是怎么": 7901,
      "考试": 7902,
      "相关": 7903,
      "网络": 7904,
      "▁大家": 7905,
      "帮忙": 7906,
      "恢复": 7907,
      "家里": 7908,
      "▁自": 7909,
      "给你": 7910,
      "我想": 7911,
      "担心": 7912,
      "设计": 7913,
      "▁此": 7914,
      "保证": 7915,
      "那种": 7916,
      "▁没": 7917,
      "▁这些": 7918,
      "保护": 7919,
      "压力": 7920,
      "第一": 7921,
      "的好": 7922,
      "每天": 7923,
      "理解": 7924,
      "根本": 7925,
      "文件": 7926,
      "▁谁": 7927,
      "重新": 7928,
      "经过": 7929,
      "给他": 7930,
      "程度": 7931,
      "以及": 7932,
      "最近": 7933,
      "装备": 7934,
      "是一": 7935,
      "证明": 7936,
      "对我": 7937,
      "▁将": 7938,
      "▁是不是": 7939,
      "不想": 7940,
      "刺激": 7941,
      "癫痫": 7942,
      "▁总": 7943,
      "的原因": 7944,
      "▁岁": 7945,
      "对于": 7946,
      "科学": 7947,
      "了一个": 7948,
      "安装": 7949,
      "男朋友": 7950,
      "▁去": 7951,
      "股票": 7952,
      "出的": 7953,
      "到底": 7954,
      "专家": 7955,
      "必要": 7956,
      "可能是": 7957,
      "正规": 7958,
      "▁什么": 7959,
      "▁%": 7960,
      "及时": 7961,
      "那里": 7962,
      "人体": 7963,
      "减少": 7964,
      "▁—": 7965,
      "▁甚至": 7966,
      "确定": 7967,
      "▁至": 7968,
      "就要": 7969,
      "月经": 7970,
      "▁只有": 7971,
      "正确": 7972,
      "是有": 7973,
      "的小": 7974,
      "今年": 7975,
      "分泌": 7976,
      "密码": 7977,
      "机构": 7978,
      "同学": 7979,
      "只要": 7980,
      "标准": 7981,
      "分手": 7982,
      "人民": 7983,
      "材料": 7984,
      "▁过": 7985,
      "女朋友": 7986,
      "▁并且": 7987,
      "受到": 7988,
      "的不": 7989,
      "速度": 7990,
      "普通": 7991,
      "是我": 7992,
      "法律": 7993,
      "让我": 7994,
      "病毒": 7995,
      "水平": 7996,
      "高手": 7997,
      "▁加": 7998,
      "很难": 7999,
      "的治疗": 8000,
      "比较好": 8001,
      "操作": 8002,
      "男友": 8003,
      "该怎么办": 8004,
      "后的": 8005,
      "新的": 8006,
      "有个": 8007,
      "会计": 8008,
      "▁反": 8009,
      "区别": 8010,
      "购买": 8011,
      "设置": 8012,
      "的事情": 8013,
      "突然": 8014,
      "一年": 8015,
      "▁主要": 8016,
      "▁需要": 8017,
      "▁与": 8018,
      "是个": 8019,
      "饮食": 8020,
      "按照": 8021,
      "头发": 8022,
      "\n我": 8023,
      "客户": 8024,
      "▁我也": 8025,
      "关键": 8026,
      "▁最近": 8027,
      "▁打": 8028,
      "尤其": 8029,
      "眼睛": 8030,
      "努力": 8031,
      "身份": 8032,
      "详细": 8033,
      "▁听": 8034,
      "采用": 8035,
      "家的": 8036,
      "也可以": 8037,
      "职业": 8038,
      "慢慢": 8039,
      "▁下": 8040,
      "有人": 8041,
      "类的": 8042,
      "对你": 8043,
      "注册": 8044,
      "获得": 8045,
      "明白": 8046,
      "睡觉": 8047,
      "衣服": 8048,
      "往往": 8049,
      "回来": 8050,
      "自动": 8051,
      "越来": 8052,
      "▁中国": 8053,
      "心的": 8054,
      "▁最后": 8055,
      "名字": 8056,
      "别的": 8057,
      "城市": 8058,
      "一天": 8059,
      "相对": 8060,
      "利用": 8061,
      "▁我觉得": 8062,
      "第二": 8063,
      "▁如果是": 8064,
      "这里": 8065,
      "颜色": 8066,
      "时的": 8067,
      "离婚": 8068,
      "不可": 8069,
      "越来越": 8070,
      "▁两": 8071,
      "房子": 8072,
      "以上": 8073,
      "说我": 8074,
      "参加": 8075,
      "快乐": 8076,
      "▁不是": 8077,
      "▁目前": 8078,
      "价值": 8079,
      "意见": 8080,
      "等等": 8081,
      "▁我在": 8082,
      "坚持": 8083,
      "▁不能": 8084,
      "电视": 8085,
      "▁有时": 8086,
      "目的": 8087,
      "定的": 8088,
      "不用": 8089,
      "有一个": 8090,
      "历史": 8091,
      "遇到": 8092,
      "并不": 8093,
      "▁特别": 8094,
      "程序": 8095,
      "▁高": 8096,
      "病情": 8097,
      "痛苦": 8098,
      "睡眠": 8099,
      "▁第二": 8100,
      "长时间": 8101,
      "其实": 8102,
      "▁吃": 8103,
      "量的": 8104,
      "过程中": 8105,
      "调整": 8106,
      "蛋白": 8107,
      "▁为了": 8108,
      "▁先": 8109,
      "位置": 8110,
      "▁我现在": 8111,
      "都没有": 8112,
      "▁您": 8113,
      "期间": 8114,
      "阴道": 8115,
      "▁你们": 8116,
      "上海": 8117,
      "空间": 8118,
      "不同的": 8119,
      "还要": 8120,
      "接触": 8121,
      "▁\n请问": 8122,
      "是一种": 8123,
      "▁新": 8124,
      "▁给": 8125,
      "▁老": 8126,
      "完成": 8127,
      "资金": 8128,
      "放弃": 8129,
      "儿子": 8130,
      "小时": 8131,
      "出了": 8132,
      "放在": 8133,
      "这一": 8134,
      "做的": 8135,
      "销售": 8136,
      "发育": 8137,
      "说是": 8138,
      "性格": 8139,
      "过去": 8140,
      "▁首先": 8141,
      "血管": 8142,
      "经营": 8143,
      "愿意": 8144,
      "有哪些": 8145,
      "双方": 8146,
      "▁自己": 8147,
      "政府": 8148,
      "麻烦": 8149,
      "是最": 8150,
      "中心": 8151,
      "▁个月": 8152,
      "▁尤其": 8153,
      "出去": 8154,
      "▁`": 8155,
      "方向": 8156,
      "通常": 8157,
      "▁有些": 8158,
      "说话": 8159,
      "现实": 8160,
      "随着": 8161,
      "生命": 8162,
      "生的": 8163,
      "吸收": 8164,
      "文化": 8165,
      "品牌": 8166,
      "目标": 8167,
      "离开": 8168,
      "▁你的": 8169,
      "▁发": 8170,
      "有很多": 8171,
      "孩子的": 8172,
      "▁真": 8173,
      "很大": 8174,
      "日本": 8175,
      "面对": 8176,
      "▁也许": 8177,
      "疼痛": 8178,
      "业务": 8179,
      "一定的": 8180,
      "▁由": 8181,
      "▁很多": 8182,
      "主动": 8183,
      "爱的": 8184,
      "生素": 8185,
      "情绪": 8186,
      "是很": 8187,
      "最后": 8188,
      "子宫": 8189,
      "人们": 8190,
      "感到": 8191,
      "心情": 8192,
      "尽量": 8193,
      "下的": 8194,
      "意义": 8195,
      "工资": 8196,
      "攻击": 8197,
      "咨询": 8198,
      "空气": 8199,
      "风险": 8200,
      "地区": 8201,
      "曾经": 8202,
      "一步": 8203,
      "是因为": 8204,
      "▁如何": 8205,
      "也没": 8206,
      "有了": 8207,
      "▁同": 8208,
      "全部": 8209,
      "代表": 8210,
      "现在的": 8211,
      "也没有": 8212,
      "国际": 8213,
      "每次": 8214,
      "过的": 8215,
      "母亲": 8216,
      "打开": 8217,
      "▁则": 8218,
      "▁根据": 8219,
      "毕竟": 8220,
      "呵呵": 8221,
      "下去": 8222,
      "▁该": 8223,
      "玩家": 8224,
      "▁但我": 8225,
      "方便": 8226,
      "都要": 8227,
      "高的": 8228,
      "紧张": 8229,
      "解释": 8230,
      "▁从而": 8231,
      "之一": 8232,
      "多数": 8233,
      "我们的": 8234,
      "▁于": 8235,
      "▁也就是": 8236,
      "▁白": 8237,
      "重要的": 8238,
      "年的": 8239,
      "不过": 8240,
      "▁以前": 8241,
      "啊\n": 8242,
      "▁开": 8243,
      "▁点": 8244,
      "变成": 8245,
      "方面的": 8246,
      "▁否": 8247,
      "错误": 8248,
      "补充": 8249,
      "支持": 8250,
      "一样的": 8251,
      "实在": 8252,
      "武器": 8253,
      "共同": 8254,
      "所以": 8255,
      "▁万": 8256,
      "内的": 8257,
      "它的": 8258,
      "就能": 8259,
      "正常的": 8260,
      "打电话": 8261,
      "卫生": 8262,
      "▁有的": 8263,
      "本身": 8264,
      "当时": 8265,
      "当然": 8266,
      "思想": 8267,
      "了我": 8268,
      "和她": 8269,
      "引起的": 8270,
      "家人": 8271,
      "部位": 8272,
      "结合": 8273,
      "▁原": 8274,
      "不得": 8275,
      "▁若": 8276,
      "也很": 8277,
      "提示": 8278,
      "合适": 8279,
      "激素": 8280,
      "▁即使": 8281,
      "▁外": 8282,
      "十分": 8283,
      "女友": 8284,
      "收入": 8285,
      "户口": 8286,
      "工程": 8287,
      "阶段": 8288,
      "过敏": 8289,
      "▁否则": 8290,
      "▁男": 8291,
      "建立": 8292,
      "那样": 8293,
      "答案": 8294,
      "范围": 8295,
      "▁生": 8296,
      "▁通过": 8297,
      "女孩子": 8298,
      "婚姻": 8299,
      "动物": 8300,
      "太阳": 8301,
      "结构": 8302,
      "都可以": 8303,
      "食品": 8304,
      "▁爱": 8305,
      "昨天": 8306,
      "超过": 8307,
      "出血": 8308,
      "表示": 8309,
      "▁难": 8310,
      "试试": 8311,
      "手续": 8312,
      "▁一定": 8313,
      "绝对": 8314,
      "回家": 8315,
      "应该是": 8316,
      "一切": 8317,
      "上了": 8318,
      "好像": 8319,
      "贷款": 8320,
      "合理": 8321,
      "行政": 8322,
      "成本": 8323,
      "以下": 8324,
      "提出": 8325,
      "参考": 8326,
      "困难": 8327,
      "消化": 8328,
      "出来的": 8329,
      "明确": 8330,
      "▁既": 8331,
      "锻炼": 8332,
      "女儿": 8333,
      "就行": 8334,
      "支付": 8335,
      "兴趣": 8336,
      "电子": 8337,
      "病人": 8338,
      "意识": 8339,
      "稳定": 8340,
      "特点": 8341,
      "小孩": 8342,
      "▁今天": 8343,
      "好多": 8344,
      "▁四": 8345,
      "不知": 8346,
      "▁水": 8347,
      "▁具体": 8348,
      "声音": 8349,
      "不断": 8350,
      "▁但是我": 8351,
      "老婆": 8352,
      "主义": 8353,
      "长的": 8354,
      "让他": 8355,
      "服务器": 8356,
      "服用": 8357,
      "身边": 8358,
      "▁\n为什么": 8359,
      "▁每次": 8360,
      "第一次": 8361,
      "制度": 8362,
      "年龄": 8363,
      "的作用": 8364,
      "相当": 8365,
      "不太": 8366,
      "综合": 8367,
      "▁治疗": 8368,
      "适当": 8369,
      "的朋友": 8370,
      "\n你": 8371,
      "脂肪": 8372,
      "想法": 8373,
      "不良": 8374,
      "的感觉": 8375,
      "几乎": 8376,
      "文章": 8377,
      "是你": 8378,
      "▁每天": 8379,
      "汽车": 8380,
      "博客": 8381,
      "确实": 8382,
      "休息": 8383,
      "免疫": 8384,
      "常见": 8385,
      "行的": 8386,
      "身份证": 8387,
      "也要": 8388,
      "实现": 8389,
      "降低": 8390,
      "资产": 8391,
      "传统": 8392,
      "我是": 8393,
      "周围": 8394,
      "自身": 8395,
      "永远": 8396,
      "针对": 8397,
      "商品": 8398,
      "积极": 8399,
      "是指": 8400,
      "公司的": 8401,
      "▁刚": 8402,
      "两种": 8403,
      "什么的": 8404,
      "免费": 8405,
      "▁我很": 8406,
      "开心": 8407,
      "情况下": 8408,
      "不多": 8409,
      "给她": 8410,
      "▁却": 8411,
      "▁平时": 8412,
      "▁而是": 8413,
      "▁当时": 8414,
      "跟我": 8415,
      "身上": 8416,
      "应当": 8417,
      "他们的": 8418,
      "帐号": 8419,
      "想要": 8420,
      "女生": 8421,
      "表面": 8422,
      "▁结果": 8423,
      "其它": 8424,
      "以为": 8425,
      "机关": 8426,
      "开发": 8427,
      "形式": 8428,
      "消费": 8429,
      "温度": 8430,
      "还没有": 8431,
      "如此": 8432,
      "设备": 8433,
      "预防": 8434,
      "整个": 8435,
      "多少钱": 8436,
      "说了": 8437,
      "▁有什么": 8438,
      "▁/": 8439,
      "装修": 8440,
      "小的": 8441,
      "我在": 8442,
      "句话": 8443,
      "会不会": 8444,
      "防止": 8445,
      "▁他说": 8446,
      "期的": 8447,
      "就可以了": 8448,
      "语言": 8449,
      "登陆": 8450,
      "▁被": 8451,
      "领导": 8452,
      "不足": 8453,
      "▁包括": 8454,
      "观察": 8455,
      "经历": 8456,
      "特殊": 8457,
      "现代": 8458,
      "专业的": 8459,
      "都很": 8460,
      "▁孩子": 8461,
      "▁怎样": 8462,
      "得了": 8463,
      "▁公": 8464,
      "父亲": 8465,
      "型的": 8466,
      "事业": 8467,
      "采取": 8468,
      "牙齿": 8469,
      "有时": 8470,
      "做了": 8471,
      "▁正": 8472,
      "国内": 8473,
      "的最": 8474,
      "短信": 8475,
      "项目": 8476,
      "行业": 8477,
      "▁全": 8478,
      "关心": 8479,
      "这是": 8480,
      "改善": 8481,
      "▁早": 8482,
      "完美": 8483,
      "指导": 8484,
      "▁才": 8485,
      "几次": 8486,
      "的一个": 8487,
      "不在": 8488,
      "进去": 8489,
      "的情况下": 8490,
      "理论": 8491,
      "负责": 8492,
      "▁我就": 8493,
      "一段时间": 8494,
      "体的": 8495,
      "▁祝你": 8496,
      "和你": 8497,
      "要注意": 8498,
      "便宜": 8499,
      "不是很": 8500,
      "培训": 8501,
      "▁注意": 8502,
      "还可以": 8503,
      "没什么": 8504,
      "▁感觉": 8505,
      "状况": 8506,
      "呼吸": 8507,
      "计划": 8508,
      "调节": 8509,
      "▁\n如果": 8510,
      "建设": 8511,
      "判断": 8512,
      "幼儿": 8513,
      "力的": 8514,
      "彻底": 8515,
      "上面": 8516,
      "值得": 8517,
      "过了": 8518,
      "逐渐": 8519,
      "慢性": 8520,
      "都在": 8521,
      "之间的": 8522,
      "儿童": 8523,
      "平衡": 8524,
      "▁至于": 8525,
      "成绩": 8526,
      "者的": 8527,
      "上网": 8528,
      "家长": 8529,
      "维生素": 8530,
      "电影": 8531,
      "数据": 8532,
      "血液": 8533,
      "感冒": 8534,
      "星期": 8535,
      "▁除": 8536,
      "追求": 8537,
      "医疗": 8538,
      "异常": 8539,
      "记得": 8540,
      "▁都是": 8541,
      "▁不知": 8542,
      "▁特别是": 8543,
      "马上": 8544,
      "干净": 8545,
      "态度": 8546,
      "新浪": 8547,
      "满足": 8548,
      "▁有没有": 8549,
      "所在": 8550,
      "炎症": 8551,
      "让你": 8552,
      "临床": 8553,
      "成熟": 8554,
      "就有": 8555,
      "复发": 8556,
      "矛盾": 8557,
      "什么时候": 8558,
      "▁心": 8559,
      "别人的": 8560,
      "财产": 8561,
      "到的": 8562,
      "▁\n在": 8563,
      "▁经常": 8564,
      "生物": 8565,
      "称为": 8566,
      "交往": 8567,
      "所谓": 8568,
      "肌肉": 8569,
      "▁除了": 8570,
      "国的": 8571,
      "太多": 8572,
      "每个": 8573,
      "▁直": 8574,
      "培养": 8575,
      "连接": 8576,
      "的工作": 8577,
      "▁按": 8578,
      "变得": 8579,
      "学会": 8580,
      "交流": 8581,
      "年了": 8582,
      "减肥": 8583,
      "含有": 8584,
      "▁一直": 8585,
      "掌握": 8586,
      "生理": 8587,
      "更加": 8588,
      "排卵": 8589,
      "一个月": 8590,
      "这个问题": 8591,
      "处于": 8592,
      "即可": 8593,
      "输入": 8594,
      "跟他": 8595,
      "三个": 8596,
      "是怎么回事": 8597,
      "丰富": 8598,
      "过来": 8599,
      "学的": 8600,
      "牛奶": 8601,
      "政策": 8602,
      "上班": 8603,
      "好好": 8604,
      "植物": 8605,
      "▁也可以": 8606,
      "一家": 8607,
      "吧\n": 8608,
      "适应": 8609,
      "限制": 8610,
      "邮箱": 8611,
      "带来": 8612,
      "也就": 8613,
      "相同": 8614,
      "还会": 8615,
      "激光": 8616,
      "▁哪": 8617,
      "更新": 8618,
      "原则": 8619,
      "固定": 8620,
      "我就": 8621,
      "▁常": 8622,
      "▁我家": 8623,
      "包皮": 8624,
      "属性": 8625,
      "▁呵呵": 8626,
      "吃饭": 8627,
      "最好的": 8628,
      "升级": 8629,
      "图片": 8630,
      "理想": 8631,
      "符合": 8632,
      "有所": 8633,
      "例如": 8634,
      "是要": 8635,
      "都没": 8636,
      "登记": 8637,
      "角度": 8638,
      "规律": 8639,
      "资源": 8640,
      "距离": 8641,
      "记忆": 8642,
      "▁以后": 8643,
      "地址": 8644,
      "造成的": 8645,
      "不起": 8646,
      "癜风": 8647,
      "促进": 8648,
      "▁像": 8649,
      "失败": 8650,
      "法院": 8651,
      "拒绝": 8652,
      "某些": 8653,
      "婴儿": 8654,
      "关节": 8655,
      "舒服": 8656,
      "怎么做": 8657,
      "▁无论": 8658,
      "地的": 8659,
      "用于": 8660,
      "女的": 8661,
      "上去": 8662,
      "不错的": 8663,
      "▁据": 8664,
      "▁毕竟": 8665,
      "买了": 8666,
      "▁也是": 8667,
      "不少": 8668,
      "男孩": 8669,
      "▁于是": 8670,
      "沟通": 8671,
      "夫妻": 8672,
      "修改": 8673,
      "动作": 8674,
      "取得": 8675,
      "▁其中": 8676,
      "计算机": 8677,
      "失去": 8678,
      "持续": 8679,
      "▁因为我": 8680,
      "同事": 8681,
      "本人": 8682,
      "千万": 8683,
      "不喜欢": 8684,
      "楼主": 8685,
      "理由": 8686,
      "不够": 8687,
      "▁出": 8688,
      "类似": 8689,
      "发票": 8690,
      "来看": 8691,
      "训练": 8692,
      "避孕": 8693,
      "音乐": 8694,
      "▁相": 8695,
      "物理": 8696,
      "故事": 8697,
      "成分": 8698,
      "下降": 8699,
      "独立": 8700,
      "▁谢谢\n": 8701,
      "▁·": 8702,
      "民族": 8703,
      "障碍": 8704,
      "▁以及": 8705,
      "结束": 8706,
      "▁尤其是": 8707,
      "不行": 8708,
      "肚子": 8709,
      "很好的": 8710,
      "比赛": 8711,
      "力量": 8712,
      "▁可是我": 8713,
      "▁不管": 8714,
      "有可能": 8715,
      "▁宝宝": 8716,
      "小心": 8717,
      "爸爸": 8718,
      "复杂": 8719,
      "估计": 8720,
      "两天": 8721,
      "房屋": 8722,
      "你可以": 8723,
      "聊天": 8724,
      "不仅": 8725,
      "害怕": 8726,
      "病的": 8727,
      "部的": 8728,
      "资本": 8729,
      "问题的": 8730,
      "配合": 8731,
      "▁重": 8732,
      "清洁": 8733,
      "买的": 8734,
      "充分": 8735,
      "▁来": 8736,
      "危险": 8737,
      "不可以": 8738,
      "▁你要": 8739,
      "▁别": 8740,
      "您好": 8741,
      "消失": 8742,
      "▁是否": 8743,
      "▁例如": 8744,
      "想到": 8745,
      "关注": 8746,
      "体内": 8747,
      "爱你": 8748,
      "人家": 8749,
      "保障": 8750,
      "利益": 8751,
      "卵管": 8752,
      "证券": 8753,
      "彼此": 8754,
      "还能": 8755,
      "你要": 8756,
      "▁医生": 8757,
      "建筑": 8758,
      "制作": 8759,
      "在我": 8760,
      "所有的": 8761,
      "生长": 8762,
      "输卵管": 8763,
      "去医院": 8764,
      "中药": 8765,
      "缺乏": 8766,
      "▁且": 8767,
      "统一": 8768,
      "▁有时候": 8769,
      "资格": 8770,
      "危害": 8771,
      "快速": 8772,
      "用户": 8773,
      "▁内": 8774,
      "员工": 8775,
      "孕妇": 8776,
      "看见": 8777,
      "性生活": 8778,
      "利于": 8779,
      "很少": 8780,
      "指点": 8781,
      "生气": 8782,
      "▁各": 8783,
      "▁我和": 8784,
      "成了": 8785,
      "▁只能": 8786,
      "▁必须": 8787,
      "承担": 8788,
      "这种情况": 8789,
      "胎儿": 8790,
      "敏感": 8791,
      "漂亮": 8792,
      "都能": 8793,
      "▁找": 8794,
      "不上": 8795,
      "应用": 8796,
      "▁金": 8797,
      "事实": 8798,
      "水果": 8799,
      "的一种": 8800,
      "而已": 8801,
      "分为": 8802,
      "才会": 8803,
      "附近": 8804,
      "大概": 8805,
      "还没": 8806,
      "▁周": 8807,
      "对他": 8808,
      "更好": 8809,
      "细菌": 8810,
      "它们": 8811,
      "人在": 8812,
      "恋爱": 8813,
      "自我": 8814,
      "相应": 8815,
      "请教": 8816,
      "并不是": 8817,
      "自由": 8818,
      "主要是": 8819,
      "尖锐": 8820,
      "质的": 8821,
      "▁急": 8822,
      "忘记": 8823,
      "您的": 8824,
      "正在": 8825,
      "记录": 8826,
      "▁他的": 8827,
      "日子": 8828,
      "湿疣": 8829,
      "的影响": 8830,
      "▁求": 8831,
      "动机": 8832,
      "收益": 8833,
      "用了": 8834,
      "做好": 8835,
      "收费": 8836,
      "中医": 8837,
      "化学": 8838,
      "道理": 8839,
      "第三": 8840,
      "竞争": 8841,
      "▁我不知道": 8842,
      "老是": 8843,
      "▁\n关于": 8844,
      "▁个人": 8845,
      "时期": 8846,
      "专科": 8847,
      "大量": 8848,
      "▁\n你好": 8849,
      "上有": 8850,
      "▁放": 8851,
      "物品": 8852,
      "权利": 8853,
      "广告": 8854,
      "奶粉": 8855,
      "做到": 8856,
      "旅游": 8857,
      "半年": 8858,
      "▁才能": 8859,
      "▁建议你": 8860,
      "等级": 8861,
      "▁一定要": 8862,
      "阴茎": 8863,
      "哪家": 8864,
      "后来": 8865,
      "拥有": 8866,
      "几年": 8867,
      "▁地": 8868,
      "成的": 8869,
      "让人": 8870,
      "▁选择": 8871,
      "处女": 8872,
      "▁其他": 8873,
      "而且": 8874,
      "▁买": 8875,
      "口腔": 8876,
      "信心": 8877,
      "是可以": 8878,
      "满意": 8879,
      "点的": 8880,
      "度的": 8881,
      "听说": 8882,
      "宫颈": 8883,
      "▁就会": 8884,
      "▁那就": 8885,
      "▁五": 8886,
      "▁不会": 8887,
      "▁电": 8888,
      "或是": 8889,
      "长了": 8890,
      "治愈": 8891,
      "▁有人": 8892,
      "▁已经": 8893,
      "同意": 8894,
      "但是": 8895,
      "化妆": 8896,
      "问问": 8897,
      "多久": 8898,
      "执行": 8899,
      "数学": 8900,
      "方的": 8901,
      "▁手": 8902,
      "有限": 8903,
      "大小": 8904,
      "工具": 8905,
      "是多少": 8906,
      "能不能": 8907,
      "一条": 8908,
      "人类": 8909,
      "死亡": 8910,
      "可能会": 8911,
      "▁进": 8912,
      "▁导致": 8913,
      "专门": 8914,
      "男性": 8915,
      "我也": 8916,
      "损伤": 8917,
      "▁尽": 8918,
      "不去": 8919,
      "增强": 8920,
      "▁难道": 8921,
      "尖锐湿疣": 8922,
      "财务": 8923,
      "措施": 8924,
      "需求": 8925,
      "说法": 8926,
      "厉害": 8927,
      "表达": 8928,
      "投资者": 8929,
      "为主": 8930,
      "维护": 8931,
      "诊断": 8932,
      "好处": 8933,
      "很快": 8934,
      "▁第三": 8935,
      "氧化": 8936,
      "男生": 8937,
      "相处": 8938,
      "成长": 8939,
      "信用": 8940,
      "没有什么": 8941,
      "优势": 8942,
      "不开": 8943,
      "感受": 8944,
      "生殖": 8945,
      "▁元": 8946,
      "干燥": 8947,
      "准确": 8948,
      "了吗": 8949,
      "▁长": 8950,
      "▁次": 8951,
      "现金": 8952,
      "对象": 8953,
      "看了": 8954,
      "不如": 8955,
      "战争": 8956,
      "用什么": 8957,
      "安排": 8958,
      "移动": 8959,
      "出生": 8960,
      "政治": 8961,
      "▁\n如何": 8962,
      "的方式": 8963,
      "强的": 8964,
      "证书": 8965,
      "所得": 8966,
      "而言": 8967,
      "▁经": 8968,
      "面积": 8969,
      "▁主": 8970,
      "遗传": 8971,
      "爱我": 8972,
      "发的": 8973,
      "才可以": 8974,
      "面前": 8975,
      "不可能": 8976,
      "医学": 8977,
      "方案": 8978,
      "打印": 8979,
      "▁性": 8980,
      "之类的": 8981,
      "年轻": 8982,
      "物的": 8983,
      "良好的": 8984,
      "就没": 8985,
      "损害": 8986,
      "在网上": 8987,
      "的高": 8988,
      "的关系": 8989,
      "照片": 8990,
      "反映": 8991,
      "建议你": 8992,
      "清洗": 8993,
      "狗狗": 8994,
      "真的很": 8995,
      "差不多": 8996,
      "消除": 8997,
      "好吗": 8998,
      "副作用": 8999,
      "▁级": 9000,
      "真正的": 9001,
      "▁听说": 9002,
      "帮帮我": 9003,
      "的那": 9004,
      "手段": 9005,
      "发作": 9006,
      "怎么回事": 9007,
      "▁体": 9008,
      "才是": 9009,
      "▁连": 9010,
      "的效果": 9011,
      "在于": 9012,
      "房产": 9013,
      "模式": 9014,
      "启动": 9015,
      "大了": 9016,
      "很大的": 9017,
      "留下": 9018,
      "艺术": 9019,
      "▁国": 9020,
      "▁时间": 9021,
      "脾气": 9022,
      "循环": 9023,
      "▁使用": 9024,
      "看的": 9025,
      "劳动合同": 9026,
      "外的": 9027,
      "创造": 9028,
      "让她": 9029,
      "谁知道": 9030,
      "▁相信": 9031,
      "大脑": 9032,
      "好象": 9033,
      "破坏": 9034,
      "飞机": 9035,
      "你是": 9036,
      "玻璃": 9037,
      "▁随着": 9038,
      "问一下": 9039,
      "添加": 9040,
      "似乎": 9041,
      "血压": 9042,
      "仍然": 9043,
      "▁西": 9044,
      "电池": 9045,
      "吃了": 9046,
      "样子": 9047,
      "生活中": 9048,
      "从来": 9049,
      "高兴": 9050,
      "什么样的": 9051,
      "报考": 9052,
      "▁我知道": 9053,
      "天天": 9054,
      "用药": 9055,
      "广州": 9056,
      "▁平": 9057,
      "时代": 9058,
      "未来": 9059,
      "纳税": 9060,
      "▁关于": 9061,
      "的医院": 9062,
      "的可能": 9063,
      "青春": 9064,
      "也许": 9065,
      "白癜风": 9066,
      "要看": 9067,
      "了他": 9068,
      "足够": 9069,
      "微博": 9070,
      "心态": 9071,
      "发病": 9072,
      "▁那个": 9073,
      "也不会": 9074,
      "土地": 9075,
      "▁请大家": 9076,
      "基本上": 9077,
      "▁假": 9078,
      "冬天": 9079,
      "吸引": 9080,
      "缓解": 9081,
      "回到": 9082,
      "局部": 9083,
      "系列": 9084,
      "账户": 9085,
      "不一样": 9086,
      "更多": 9087,
      "概念": 9088,
      "有多": 9089,
      "真实": 9090,
      "简单的": 9091,
      "不大": 9092,
      "▁学": 9093,
      "婆婆": 9094,
      "数量": 9095,
      "说他": 9096,
      "驱动": 9097,
      "利润": 9098,
      "解答": 9099,
      "▁明": 9100,
      "代理": 9101,
      "了很多": 9102,
      "在外": 9103,
      "的吗": 9104,
      "见面": 9105,
      "本来": 9106,
      "找不到": 9107,
      "很有": 9108,
      "很容易": 9109,
      "损失": 9110,
      "▁本人": 9111,
      "集中": 9112,
      "▁作为": 9113,
      "就没有": 9114,
      "提前": 9115,
      "不懂": 9116,
      "感谢": 9117,
      "协议": 9118,
      "货币": 9119,
      "原来": 9120,
      "喜欢的": 9121,
      "▁转": 9122,
      "▁人们": 9123,
      "▁怎么办": 9124,
      "号码": 9125,
      "实施": 9126,
      "代谢": 9127,
      "疗法": 9128,
      "股市": 9129,
      "你自己": 9130,
      "深圳": 9131,
      "高中": 9132,
      "吃的": 9133,
      "怀疑": 9134,
      "早上": 9135,
      "▁工作": 9136,
      "常常": 9137,
      "删除": 9138,
      "▁避免": 9139,
      "开了": 9140,
      "\n如果": 9141,
      "下面": 9142,
      "不再": 9143,
      "的主要": 9144,
      "列腺": 9145,
      "后再": 9146,
      "流产": 9147,
      "运行": 9148,
      "▁要是": 9149,
      "▁近": 9150,
      "些什么": 9151,
      "的前": 9152,
      "辐射": 9153,
      "▁少": 9154,
      "两次": 9155,
      "相互": 9156,
      "做爱": 9157,
      "爱问": 9158,
      "▁便": 9159,
      "消息": 9160,
      "点击": 9161,
      "脸上": 9162,
      "▁既然": 9163,
      "日常": 9164,
      "还在": 9165,
      "可以用": 9166,
      "▁晚上": 9167,
      "当地": 9168,
      "眼镜": 9169,
      "▁造成": 9170,
      "▁可我": 9171,
      "享受": 9172,
      "反复": 9173,
      "爱他": 9174,
      "有问题": 9175,
      "进一步": 9176,
      "强烈": 9177,
      "修复": 9178,
      "▁这时": 9179,
      "▁一旦": 9180,
      "不出": 9181,
      "吵架": 9182,
      "病因": 9183,
      "注射": 9184,
      "邮件": 9185,
      "该怎么": 9186,
      "的发展": 9187,
      "去做": 9188,
      "▁所以我": 9189,
      "▁成": 9190,
      "▁美": 9191,
      "在哪里": 9192,
      "通知": 9193,
      "原理": 9194,
      "大多数": 9195,
      "官方": 9196,
      "房间": 9197,
      "测试": 9198,
      "患者的": 9199,
      "丈夫": 9200,
      "▁\n怎样": 9201,
      "实际上": 9202,
      "难以": 9203,
      "产生的": 9204,
      "色素": 9205,
      "不管": 9206,
      "务员": 9207,
      "多月": 9208,
      "▁企业": 9209,
      "两年": 9210,
      "▁分钟": 9211,
      "同样": 9212,
      "算是": 9213,
      "严重的": 9214,
      "交通": 9215,
      "夏天": 9216,
      "在哪": 9217,
      "▁效果": 9218,
      "从事": 9219,
      "暂时": 9220,
      "▁通常": 9221,
      "调查": 9222,
      "允许": 9223,
      "▁这就是": 9224,
      "的水": 9225,
      "认真": 9226,
      "传染": 9227,
      "你就": 9228,
      "观点": 9229,
      "咳嗽": 9230,
      "机器": 9231,
      "蔬菜": 9232,
      "▁我该怎么办": 9233,
      "吗\n": 9234,
      "▁然而": 9235,
      "名的": 9236,
      "学院": 9237,
      "角色": 9238,
      "▁其次": 9239,
      "的生活": 9240,
      "硬盘": 9241,
      "不对": 9242,
      "是由": 9243,
      "网页": 9244,
      "▁\n有": 9245,
      "就行了": 9246,
      "白色": 9247,
      "人都": 9248,
      "会出现": 9249,
      "本科": 9250,
      "▁此外": 9251,
      "做什么": 9252,
      "不住": 9253,
      "▁接": 9254,
      "比例": 9255,
      "类型": 9256,
      "科技": 9257,
      "赔偿": 9258,
      "具备": 9259,
      "对她": 9260,
      "思维": 9261,
      "检测": 9262,
      "正确的": 9263,
      "中间": 9264,
      "内部": 9265,
      "▁觉得": 9266,
      "差异": 9267,
      "▁以免": 9268,
      "随便": 9269,
      "不见": 9270,
      "空调": 9271,
      "迅速": 9272,
      "唯一": 9273,
      "承认": 9274,
      "依据": 9275,
      "是没有": 9276,
      "牛皮": 9277,
      "的机会": 9278,
      "能量": 9279,
      "找个": 9280,
      "开放": 9281,
      "器官": 9282,
      "在这": 9283,
      "世界上": 9284,
      "照顾": 9285,
      "人物": 9286,
      "单纯": 9287,
      "积分": 9288,
      "账号": 9289,
      "三个月": 9290,
      "做法": 9291,
      "妻子": 9292,
      "金融": 9293,
      "▁女": 9294,
      "得很": 9295,
      "看法": 9296,
      "加入": 9297,
      "严格": 9298,
      "放心": 9299,
      "红色": 9300,
      "发挥": 9301,
      "加重": 9302,
      "兴奋": 9303,
      "分别": 9304,
      "▁她说": 9305,
      "来了": 9306,
      "▁法": 9307,
      "报告": 9308,
      "化的": 9309,
      "税务": 9310,
      "可以在": 9311,
      "商业": 9312,
      "康复": 9313,
      "兄弟": 9314,
      "练习": 9315,
      "▁你好": 9316,
      "给予": 9317,
      "室内": 9318,
      "地球": 9319,
      "偶尔": 9320,
      "咖啡": 9321,
      "▁跟": 9322,
      "提醒": 9323,
      "死了": 9324,
      "生日": 9325,
      "▁开始": 9326,
      "▁美国": 9327,
      "机的": 9328,
      "视频": 9329,
      "▁不用": 9330,
      "其他的": 9331,
      "就好": 9332,
      "性交": 9333,
      "想想": 9334,
      "其中": 9335,
      "到医院": 9336,
      "加上": 9337,
      "宠物": 9338,
      "▁之后": 9339,
      "教师": 9340,
      "实验": 9341,
      "元素": 9342,
      "最大的": 9343,
      "终于": 9344,
      "上市": 9345,
      "就好了": 9346,
      "▁还要": 9347,
      "以前的": 9348,
      "农村": 9349,
      "义务": 9350,
      "办公": 9351,
      "全身": 9352,
      "你在": 9353,
      "到现在": 9354,
      "规模": 9355,
      "不需要": 9356,
      "维持": 9357,
      "转移": 9358,
      "我国": 9359,
      "信任": 9360,
      "战斗": 9361,
      "电源": 9362,
      "▁双": 9363,
      "的孩子": 9364,
      "分钟": 9365,
      "▁它们": 9366,
      "确认": 9367,
      "▁家": 9368,
      "素质": 9369,
      "就不会": 9370,
      "并没有": 9371,
      "停止": 9372,
      "垃圾": 9373,
      "▁容易": 9374,
      "味道": 9375,
      "更多的": 9376,
      "新手": 9377,
      "动力": 9378,
      "职工": 9379,
      "牛皮癣": 9380,
      "▁真的": 9381,
      "各个": 9382,
      "仔细": 9383,
      "收到": 9384,
      "笔记": 9385,
      "▁朋友": 9386,
      "▁发现": 9387,
      "轻松": 9388,
      "优秀": 9389,
      "▁太": 9390,
      "文字": 9391,
      "减轻": 9392,
      "郁闷": 9393,
      "周期": 9394,
      "另一": 9395,
      "然后": 9396,
      "美容": 9397,
      "蛋白质": 9398,
      "▁公司": 9399,
      "▁看看": 9400,
      "数字": 9401,
      "边的": 9402,
      "哪里有": 9403,
      "▁第一": 9404,
      "▁我说": 9405,
      "▁就可以": 9406,
      "大部分": 9407,
      "手淫": 9408,
      "重视": 9409,
      "是什么原因": 9410,
      "增值": 9411,
      "尝试": 9412,
      "记住": 9413,
      "鸡蛋": 9414,
      "大便": 9415,
      "纤维": 9416,
      "▁向": 9417,
      "加强": 9418,
      "增长": 9419,
      "生育": 9420,
      "台湾": 9421,
      "寻找": 9422,
      "营业": 9423,
      "▁\n这": 9424,
      "后悔": 9425,
      "就在": 9426,
      "立即": 9427,
      "食用": 9428,
      "回去": 9429,
      "的症状": 9430,
      "▁时": 9431,
      "定期": 9432,
      "我家": 9433,
      "是什么意思": 9434,
      "▁昨天": 9435,
      "动的": 9436,
      "▁现": 9437,
      "护理": 9438,
      "▁带": 9439,
      "特征": 9440,
      "的食物": 9441,
      "▁也有": 9442,
      "杀毒": 9443,
      "背景": 9444,
      "制造": 9445,
      "▁不同": 9446,
      "抑制": 9447,
      "香港": 9448,
      "有效的": 9449,
      "刚刚": 9450,
      "合作": 9451,
      "实践": 9452,
      "▁经过": 9453,
      "过于": 9454,
      "玩的": 9455,
      "▁好像": 9456,
      "伤心": 9457,
      "癫痫病": 9458,
      "▁主要是": 9459,
      "▁这样的": 9460,
      "几种": 9461,
      "母乳": 9462,
      "宝宝的": 9463,
      "地位": 9464,
      "连续": 9465,
      "▁不然": 9466,
      "▁+": 9467,
      "▁眼": 9468,
      "帮帮忙": 9469,
      "排除": 9470,
      "提问": 9471,
      "葡萄": 9472,
      "▁故": 9473,
      "▁海": 9474,
      "也能": 9475,
      "也不是": 9476,
      "错了": 9477,
      "▁问": 9478,
      "▁而不是": 9479,
      "多种": 9480,
      "里有": 9481,
      "▁头": 9482,
      "保养": 9483,
      "▁我要": 9484,
      "我和": 9485,
      "公务员": 9486,
      "明的": 9487,
      "自信": 9488,
      "两个人": 9489,
      "淘宝": 9490,
      "他人": 9491,
      "热水": 9492,
      "过多": 9493,
      "阳光": 9494,
      "用来": 9495,
      "教学": 9496,
      "▁总之": 9497,
      "姐姐": 9498,
      "污染": 9499,
      "付出": 9500,
      "要有": 9501,
      "▁十": 9502,
      "再次": 9503,
      "妇女": 9504,
      "互相": 9505,
      "分开": 9506,
      "▁今年": 9507,
      "▁\n我的": 9508,
      "是否有": 9509,
      "▁精": 9510,
      "前的": 9511,
      "不敢": 9512,
      "▁\n怎么": 9513,
      "是对": 9514,
      "出现了": 9515,
      "全国": 9516,
      "起到": 9517,
      "▁如果有": 9518,
      "▁应当": 9519,
      "分配": 9520,
      "▁还有就是": 9521,
      "年人": 9522,
      "很不": 9523,
      "▁提高": 9524,
      "▁关键": 9525,
      "告诉你": 9526,
      "吃什么": 9527,
      "打算": 9528,
      "答应": 9529,
      "缺点": 9530,
      "以来": 9531,
      "病变": 9532,
      "件事": 9533,
      "形象": 9534,
      "规则": 9535,
      "肌肤": 9536,
      "指甲": 9537,
      "了个": 9538,
      "分子": 9539,
      "世纪": 9540,
      "的我": 9541,
      "什么是": 9542,
      "住房": 9543,
      "情感": 9544,
      "的重要": 9545,
      "存款": 9546,
      "把握": 9547,
      "一份": 9548,
      "调理": 9549,
      "仅仅": 9550,
      "熟悉": 9551,
      "评价": 9552,
      "里面的": 9553,
      "加工": 9554,
      "对待": 9555,
      "尊重": 9556,
      "礼物": 9557,
      "去看": 9558,
      "老板": 9559,
      "道德": 9560,
      "▁你就": 9561,
      "会使": 9562,
      "全面": 9563,
      "参与": 9564,
      "▁患者": 9565,
      "▁总是": 9566,
      "生意": 9567,
      "信号": 9568,
      "内存": 9569,
      "哪种": 9570,
      "情人": 9571,
      "期限": 9572,
      "自行": 9573,
      "上述": 9574,
      "配置": 9575,
      "人生": 9576,
      "思考": 9577,
      "一张": 9578,
      "不适": 9579,
      "去除": 9580,
      "负担": 9581,
      "重要的是": 9582,
      "有时候": 9583,
      "▁你会": 9584,
      "▁谁能": 9585,
      "在家": 9586,
      "区域": 9587,
      "另外": 9588,
      "上传": 9589,
      "人单位": 9590,
      "▁黑": 9591,
      "她们": 9592,
      "组成": 9593,
      "乳房": 9594,
      "到你": 9595,
      "运用": 9596,
      "▁号": 9597,
      "▁按照": 9598,
      "金属": 9599,
      "▁说明": 9600,
      "珍惜": 9601,
      "的同时": 9602,
      "解除": 9603,
      "▁强": 9604,
      "股东": 9605,
      "委托": 9606,
      "过度": 9607,
      "前列腺": 9608,
      "两个月": 9609,
      "表明": 9610,
      "▁试": 9611,
      "▁越": 9612,
      "能否": 9613,
      "▁以上": 9614,
      "继承": 9615,
      "说说": 9616,
      "知道的": 9617,
      "▁喜欢": 9618,
      "整形": 9619,
      "走了": 9620,
      "重点": 9621,
      "一位": 9622,
      "失眠": 9623,
      "妊娠": 9624,
      "清除": 9625,
      "爱她": 9626,
      "传播": 9627,
      "地板": 9628,
      "幼儿园": 9629,
      "了吧": 9630,
      "行动": 9631,
      "辈子": 9632,
      "搜索": 9633,
      "规定的": 9634,
      "发动机": 9635,
      "买卖": 9636,
      "▁手术": 9637,
      "▁北京": 9638,
      "心脏": 9639,
      "普遍": 9640,
      "法的": 9641,
      "课程": 9642,
      "会在": 9643,
      "最大": 9644,
      "劳动者": 9645,
      "保存": 9646,
      "▁也不": 9647,
      "中有": 9648,
      "愉快": 9649,
      "▁红": 9650,
      "▁男人": 9651,
      "说过": 9652,
      "▁切": 9653,
      "眼皮": 9654,
      "整体": 9655,
      "可是": 9656,
      "发展的": 9657,
      "▁换": 9658,
      "性质": 9659,
      "最终": 9660,
      "乙肝": 9661,
      "投入": 9662,
      "▁学习": 9663,
      "显卡": 9664,
      "制定": 9665,
      "▁洗": 9666,
      "作品": 9667,
      "放松": 9668,
      "水的": 9669,
      "▁身体": 9670,
      "▁\n现在": 9671,
      "▁比较": 9672,
      "美丽": 9673,
      "做出": 9674,
      "凭证": 9675,
      "地产": 9676,
      "人才": 9677,
      "牙龈": 9678,
      "的就是": 9679,
      "▁直接": 9680,
      "之外": 9681,
      "忘了": 9682,
      "绿色": 9683,
      "▁一是": 9684,
      "\n请问": 9685,
      "完了": 9686,
      "完整": 9687,
      "痘痘": 9688,
      "高考": 9689,
      "▁光": 9690,
      "充满": 9691,
      "证据": 9692,
      "的男人": 9693,
      "某种": 9694,
      "登录": 9695,
      "▁社会": 9696,
      "谁能": 9697,
      "随时": 9698,
      "▁生活": 9699,
      "男的": 9700,
      "描述": 9701,
      "▁长期": 9702,
      "必然": 9703,
      "的主": 9704,
      "早日": 9705,
      "版本": 9706,
      "一会": 9707,
      "完善": 9708,
      "将来": 9709,
      "说你": 9710,
      "顺利": 9711,
      "客观": 9712,
      "▁影响": 9713,
      "▁自然": 9714,
      "会影响": 9715,
      "去找": 9716,
      "表白": 9717,
      "体质": 9718,
      "我觉得": 9719,
      "效率": 9720,
      "▁\n这个": 9721,
      "▁最好是": 9722,
      "报名": 9723,
      "有用": 9724,
      "网友": 9725,
      "▁非": 9726,
      "保健": 9727,
      "基因": 9728,
      "客服": 9729,
      "规范": 9730,
      "▁小时": 9731,
      "就业": 9732,
      "开机": 9733,
      "▁保持": 9734,
      "欧洲": 9735,
      "那么多": 9736,
      "个人的": 9737,
      "实力": 9738,
      "战略": 9739,
      "浪费": 9740,
      "科目": 9741,
      "▁受": 9742,
      "要是": 9743,
      "面上": 9744,
      "▁就算": 9745,
      "混合": 9746,
      "肿瘤": 9747,
      "▁口": 9748,
      "几个月": 9749,
      "技巧": 9750,
      "早期": 9751,
      "鼻子": 9752,
      "三年": 9753,
      "几率": 9754,
      "妇科": 9755,
      "见到": 9756,
      "英雄": 9757,
      "一生": 9758,
      "指标": 9759,
      "的新": 9760,
      "尽快": 9761,
      "优点": 9762,
      "火车": 9763,
      "▁父母": 9764,
      "等待": 9765,
      "公积": 9766,
      "查询": 9767,
      "▁不仅": 9768,
      "的外": 9769,
      "▁到底": 9770,
      "的心": 9771,
      "较大": 9772,
      "有害": 9773,
      "赚钱": 9774,
      "车辆": 9775,
      "▁尽量": 9776,
      "糜烂": 9777,
      "给宝宝": 9778,
      "说不": 9779,
      "突出": 9780,
      "发表": 9781,
      "好呢": 9782,
      "屏幕": 9783,
      "拿到": 9784,
      "必要的": 9785,
      "黄金": 9786,
      "对身体": 9787,
      "消耗": 9788,
      "鼓励": 9789,
      "▁往往": 9790,
      "同一": 9791,
      "▁\n您好": 9792,
      "天气": 9793,
      "性和": 9794,
      "手指": 9795,
      "后面": 9796,
      "▁我不": 9797,
      "▁非常": 9798,
      "系统的": 9799,
      "企业的": 9800,
      "更换": 9801,
      "术后": 9802,
      "梦见": 9803,
      "笔记本": 9804,
      "提升": 9805,
      "疤痕": 9806,
      "▁国家": 9807,
      "护肤": 9808,
      "掉了": 9809,
      "鼠标": 9810,
      "一致": 9811,
      "之中": 9812,
      "合成": 9813,
      "机械": 9814,
      "酒店": 9815,
      "工作的": 9816,
      "人流": 9817,
      "生存": 9818,
      "的价格": 9819,
      "▁如果没有": 9820,
      "不孕": 9821,
      "更好的": 9822,
      "焦虑": 9823,
      "爱的人": 9824,
      "中国的": 9825,
      "叫我": 9826,
      "帮你": 9827,
      "甲状": 9828,
      "面试": 9829,
      "常见的": 9830,
      "▁直到": 9831,
      "事故": 9832,
      "变的": 9833,
      "在乎": 9834,
      "债券": 9835,
      "营销": 9836,
      "风格": 9837,
      "抑郁": 9838,
      "期货": 9839,
      "的啊": 9840,
      "让自己": 9841,
      "▁花": 9842,
      "南京": 9843,
      "国外": 9844,
      "翻译": 9845,
      "▁一些": 9846,
      "显示器": 9847,
      "▁未": 9848,
      "着急": 9849,
      "产权": 9850,
      "原来的": 9851,
      "无论": 9852,
      "▁\n可以": 9853,
      "相应的": 9854,
      "▁许多": 9855,
      "久了": 9856,
      "至少": 9857,
      "买到": 9858,
      "搭配": 9859,
      "正式": 9860,
      "▁单": 9861,
      "性能": 9862,
      "最高": 9863,
      "▁气": 9864,
      "天然": 9865,
      "依赖": 9866,
      "▁本来": 9867,
      "也不能": 9868,
      "出口": 9869,
      "一名": 9870,
      "他是": 9871,
      "不一定": 9872,
      "大师": 9873,
      "你们的": 9874,
      "▁尽管": 9875,
      "来自": 9876,
      "欢迎": 9877,
      "甲状腺": 9878,
      "在你": 9879,
      "填写": 9880,
      "维修": 9881,
      "▁除非": 9882,
      "学历": 9883,
      "补偿": 9884,
      "一块": 9885,
      "着我": 9886,
      "▁价格": 9887,
      "增生": 9888,
      "喝水": 9889,
      "▁现在的": 9890,
      "增值税": 9891,
      "▁何": 9892,
      "去年": 9893,
      "意的": 9894,
      "我很": 9895,
      "次数": 9896,
      "名称": 9897,
      "▁女人": 9898,
      "级的": 9899,
      "关系的": 9900,
      "▁二是": 9901,
      "▁清": 9902,
      "▁千万": 9903,
      "道具": 9904,
      "精子": 9905,
      "▁皮肤": 9906,
      "对自己": 9907,
      "显得": 9908,
      "的现象": 9909,
      "金额": 9910,
      "路上": 9911,
      "进的": 9912,
      "▁它的": 9913,
      "一只": 9914,
      "依然": 9915,
      "物体": 9916,
      "另一个": 9917,
      "听到": 9918,
      "始终": 9919,
      "构成": 9920,
      "疲劳": 9921,
      "的结果": 9922,
      "▁可能是": 9923,
      "工商": 9924,
      "疫苗": 9925,
      "▁我认为": 9926,
      "▁也就是说": 9927,
      "故障": 9928,
      "激活": 9929,
      "▁让他": 9930,
      "犯罪": 9931,
      "离子": 9932,
      "线的": 9933,
      "是怎样": 9934,
      "究竟": 9935,
      "你会": 9936,
      "后果": 9937,
      "把我": 9938,
      "收缩": 9939,
      "卵巢": 9940,
      "▁或许": 9941,
      "▁别人": 9942,
      "▁引起": 9943,
      "真心": 9944,
      "老人": 9945,
      "治疗的": 9946,
      "第一个": 9947,
      "说什么": 9948,
      "▁请教": 9949,
      "▁具有": 9950,
      "问我": 9951,
      "为你": 9952,
      "古代": 9953,
      "地图": 9954,
      "跟她": 9955,
      "▁就像": 9956,
      "还不": 9957,
      "▁看到": 9958,
      "\n为什么": 9959,
      "十二": 9960,
      "毛病": 9961,
      "趋势": 9962,
      "意味": 9963,
      "部队": 9964,
      "把它": 9965,
      "▁大概": 9966,
      "体现": 9967,
      "做过": 9968,
      "驾驶": 9969,
      "射精": 9970,
      "抵抗": 9971,
      "看你": 9972,
      "所得税": 9973,
      "季节": 9974,
      "承受": 9975,
      "子女": 9976,
      "有过": 9977,
      "出来了": 9978,
      "▁现在我": 9979,
      "德国": 9980,
      "涉及": 9981,
      "该如何": 9982,
      "▁这一": 9983,
      "对方的": 9984,
      "▁这里": 9985,
      "▁然后再": 9986,
      "▁反正": 9987,
      "发行": 9988,
      "施工": 9989,
      "球员": 9990,
      "读书": 9991,
      "▁或是": 9992,
      "▁起": 9993,
      "的基础": 9994,
      "工业": 9995,
      "真是": 9996,
      "一旦": 9997,
      "房地产": 9998,
      "使用的": 9999,
      "▁当你": 10000,
      "▁另一": 10001,
      "▁问题": 10002,
      "▁形成": 10003,
      "考生": 10004,
      "集体": 10005,
      "发出": 10006,
      "哥哥": 10007,
      "中央": 10008,
      "是不会": 10009,
      "▁因而": 10010,
      "上升": 10011,
      "越好": 10012,
      "转换": 10013,
      "平均": 10014,
      "想象": 10015,
      "论坛": 10016,
      "▁阿": 10017,
      "▁里面": 10018,
      "▁任何": 10019,
      "关闭": 10020,
      "呢\n": 10021,
      "▁我真的": 10022,
      "▁走": 10023,
      "阅读": 10024,
      "厕所": 10025,
      "实行": 10026,
      "懂得": 10027,
      "▁让我": 10028,
      "区的": 10029,
      "说要": 10030,
      "喝酒": 10031,
      "的女人": 10032,
      "结石": 10033,
      "消费者": 10034,
      "是谁": 10035,
      "大盘": 10036,
      "所说的": 10037,
      "有多少": 10038,
      "疗效": 10039,
      "▁所谓": 10040,
      "开的": 10041,
      "是为了": 10042,
      "约定": 10043,
      "看来": 10044,
      "▁能够": 10045,
      "妹妹": 10046,
      "高潮": 10047,
      "朋友的": 10048,
      "十年": 10049,
      "体系": 10050,
      "我现在": 10051,
      "表现为": 10052,
      "最佳": 10053,
      "溃疡": 10054,
      "给孩子": 10055,
      "蜂蜜": 10056,
      "▁此时": 10057,
      "哈哈": 10058,
      "的很": 10059,
      "有什么区别": 10060,
      "指数": 10061,
      "的那种": 10062,
      "股价": 10063,
      "发生了": 10064,
      "的要求": 10065,
      "英文": 10066,
      "▁到了": 10067,
      "组合": 10068,
      "治疗方法": 10069,
      "▁怕": 10070,
      "不下": 10071,
      "事项": 10072,
      "增多": 10073,
      "萎缩": 10074,
      "体温": 10075,
      "委员": 10076,
      "▁防": 10077,
      "在意": 10078,
      "频繁": 10079,
      "不容易": 10080,
      "▁易": 10081,
      "付款": 10082,
      "诉讼": 10083,
      "▁原来": 10084,
      "的内容": 10085,
      "保留": 10086,
      "帐户": 10087,
      "内心": 10088,
      "印象": 10089,
      "大多": 10090,
      "所致": 10091,
      "耐心": 10092,
      "▁老公": 10093,
      "你能": 10094,
      "▁要不": 10095,
      "▁上海": 10096,
      "体育": 10097,
      "天的": 10098,
      "尿道": 10099,
      "男女": 10100,
      "这次": 10101,
      "在一个": 10102,
      "大量的": 10103,
      "头的": 10104,
      "正规的": 10105,
      "不必": 10106,
      "创业": 10107,
      "经理": 10108,
      "明显的": 10109,
      "及其": 10110,
      "想的": 10111,
      "糖尿": 10112,
      "见过": 10113,
      "观念": 10114,
      "助于": 10115,
      "奶奶": 10116,
      "姿势": 10117,
      "战士": 10118,
      "接近": 10119,
      "有帮助": 10120,
      "▁至少": 10121,
      "▁干": 10122,
      "动车": 10123,
      "我要": 10124,
      "是用": 10125,
      "被人": 10126,
      "定义": 10127,
      "研究生": 10128,
      "一点的": 10129,
      "▁回": 10130,
      "复习": 10131,
      "广东": 10132,
      "公共": 10133,
      "权威": 10134,
      "▁那样": 10135,
      "人士": 10136,
      "四个": 10137,
      "验证": 10138,
      "▁各位": 10139,
      "工艺": 10140,
      "平台": 10141,
      "难受": 10142,
      "是从": 10143,
      "▁一般来说": 10144,
      "在那": 10145,
      "有好": 10146,
      "一部分": 10147,
      "感动": 10148,
      "的表现": 10149,
      "相关的": 10150,
      "主管": 10151,
      "以上的": 10152,
      "规划": 10153,
      "做个": 10154,
      "太大": 10155,
      "爱上": 10156,
      "▁流": 10157,
      "内膜": 10158,
      "坏了": 10159,
      "如下": 10160,
      "用过": 10161,
      "一般的": 10162,
      "▁就要": 10163,
      "制的": 10164,
      "不好的": 10165,
      "▁已": 10166,
      "不久": 10167,
      "讨论": 10168,
      "足球": 10169,
      "鉴定": 10170,
      "▁出现": 10171,
      "含量": 10172,
      "新鲜": 10173,
      "选用": 10174,
      "公积金": 10175,
      "不该": 10176,
      "页面": 10177,
      "格式": 10178,
      "伤口": 10179,
      "烦恼": 10180,
      "形成的": 10181,
      "内分泌": 10182,
      "来源": 10183,
      "▁初": 10184,
      "令人": 10185,
      "多吃": 10186,
      "查看": 10187,
      "都说": 10188,
      "耳朵": 10189,
      "辅助": 10190,
      "体会": 10191,
      "审核": 10192,
      "酒精": 10193,
      "▁六": 10194,
      "形态": 10195,
      "法师": 10196,
      "进步": 10197,
      "人工": 10198,
      "器的": 10199,
      "跟你": 10200,
      "轻轻": 10201,
      "个性": 10202,
      "英国": 10203,
      "▁但他": 10204,
      "又不": 10205,
      "间的": 10206,
      "需要的": 10207,
      "而不": 10208,
      "QQ": 10209,
      "养成": 10210,
      "协调": 10211,
      "利的": 10212,
      "稍微": 10213,
      "依法": 10214,
      "问他": 10215,
      "▁会不会": 10216,
      "正规医院": 10217,
      "情形": 10218,
      "有着": 10219,
      "等于": 10220,
      "▁那些": 10221,
      "好运": 10222,
      "患有": 10223,
      "播放": 10224,
      "既然": 10225,
      "碰到": 10226,
      "▁作": 10227,
      "洗澡": 10228,
      "哪位": 10229,
      "取消": 10230,
      "家具": 10231,
      "药物治疗": 10232,
      "一段": 10233,
      "加速": 10234,
      "好评": 10235,
      "宣传": 10236,
      "恐惧": 10237,
      "近视": 10238,
      "领域": 10239,
      "高度": 10240,
      "▁\n是": 10241,
      "▁我国": 10242,
      "一直在": 10243,
      "一件": 10244,
      "后就": 10245,
      "牌子": 10246,
      "竟然": 10247,
      "统计": 10248,
      "又是": 10249,
      "引发": 10250,
      "很多人": 10251,
      "▁每个": 10252,
      "比我": 10253,
      "似的": 10254,
      "小说": 10255,
      "广泛": 10256,
      "的行为": 10257,
      "变更": 10258,
      "呕吐": 10259,
      "感觉到": 10260,
      "▁假如": 10261,
      "居民": 10262,
      "牌子的": 10263,
      "▁如果他": 10264,
      "\n在": 10265,
      "我不": 10266,
      "▁一种": 10267,
      "认识的": 10268,
      "所谓的": 10269,
      "一周": 10270,
      "为何": 10271,
      "伴有": 10272,
      "高级": 10273,
      "▁是指": 10274,
      "之类": 10275,
      "急性": 10276,
      "适当的": 10277,
      "▁经济": 10278,
      "色彩": 10279,
      "▁这就": 10280,
      "生活的": 10281,
      "写的": 10282,
      "▁最终": 10283,
      "弟弟": 10284,
      "持有": 10285,
      "每个人": 10286,
      "途径": 10287,
      "这么多": 10288,
      "▁网": 10289,
      "▁银行": 10290,
      "上下": 10291,
      "气体": 10292,
      "不育": 10293,
      "积累": 10294,
      "精力": 10295,
      "韩国": 10296,
      "▁慢慢": 10297,
      "不舒服": 10298,
      "多长时间": 10299,
      "的基本": 10300,
      "聪明": 10301,
      "去看看": 10302,
      "改革": 10303,
      "鼻炎": 10304,
      "意味着": 10305,
      "失调": 10306,
      "缴纳": 10307,
      "上学": 10308,
      "亲戚": 10309,
      "子里": 10310,
      "讨厌": 10311,
      "财政": 10312,
      "的药": 10313,
      "缺少": 10314,
      "▁但在": 10315,
      "▁如果不": 10316,
      "▁请各位": 10317,
      "一定会": 10318,
      "▁血": 10319,
      "奇怪": 10320,
      "的目的": 10321,
      "装饰": 10322,
      "了就": 10323,
      "发性": 10324,
      "吃药": 10325,
      "▁还可以": 10326,
      "化妆品": 10327,
      "来讲": 10328,
      "的了": 10329,
      "看着": 10330,
      "肠道": 10331,
      "▁精神": 10332,
      "事件": 10333,
      "品种": 10334,
      "消炎": 10335,
      "内向": 10336,
      "是由于": 10337,
      "签订": 10338,
      "释放": 10339,
      "球队": 10340,
      "轻易": 10341,
      "事人": 10342,
      "共享": 10343,
      "姐妹": 10344,
      "居然": 10345,
      "车的": 10346,
      "还是要": 10347,
      "▁日本": 10348,
      "给自己": 10349,
      "脱发": 10350,
      "喂养": 10351,
      "浪漫": 10352,
      "专用": 10353,
      "成立": 10354,
      "利率": 10355,
      "看过": 10356,
      "钱的": 10357,
      "▁黄": 10358,
      "理财": 10359,
      "都不会": 10360,
      "▁因为他": 10361,
      "进行治疗": 10362,
      "认证": 10363,
      "▁一切": 10364,
      "对你的": 10365,
      "抵押": 10366,
      "摩擦": 10367,
      "歌曲": 10368,
      "疱疹": 10369,
      "女方": 10370,
      "带着": 10371,
      "的能力": 10372,
      "▁在这": 10373,
      "合法": 10374,
      "核心": 10375,
      "用手": 10376,
      "的中": 10377,
      "龟头": 10378,
      "▁风": 10379,
      "真的是": 10380,
      "▁反而": 10381,
      "不知道怎么": 10382,
      "▁随": 10383,
      "宇宙": 10384,
      "▁我有": 10385,
      "会导致": 10386,
      "的分": 10387,
      "▁了": 10388,
      "机制": 10389,
      "▁玩": 10390,
      "打了": 10391,
      "电流": 10392,
      "的发生": 10393,
      "轻微": 10394,
      "的地": 10395,
      "知道了": 10396,
      "小学": 10397,
      "防御": 10398,
      "指出": 10399,
      "的钱": 10400,
      "相比": 10401,
      "▁仅": 10402,
      "即使": 10403,
      "▁谢谢了": 10404,
      "健康的": 10405,
      "经验的": 10406,
      "▁估计": 10407,
      "体验": 10408,
      "摄影": 10409,
      "监督": 10410,
      "良好": 10411,
      "▁家里": 10412,
      "复制": 10413,
      "最多": 10414,
      "某个": 10415,
      "看出": 10416,
      "贫血": 10417,
      "和谐": 10418,
      "好不好": 10419,
      "一边": 10420,
      "单独": 10421,
      "不动": 10422,
      "想知道": 10423,
      "热情": 10424,
      "精灵": 10425,
      "▁我们的": 10426,
      "水分": 10427,
      "▁快": 10428,
      "军事": 10429,
      "年来": 10430,
      "注重": 10431,
      "专科医院": 10432,
      "勃起": 10433,
      "外面": 10434,
      "苹果": 10435,
      "▁但如果": 10436,
      "清理": 10437,
      "适用": 10438,
      "▁我是一个": 10439,
      "▁专家": 10440,
      "一句": 10441,
      "医师": 10442,
      "待遇": 10443,
      "▁得": 10444,
      "▁车": 10445,
      "▁进行": 10446,
      "意外": 10447,
      "才有": 10448,
      "的多": 10449,
      "脱落": 10450,
      "魔法": 10451,
      "冬季": 10452,
      "口服": 10453,
      "百分": 10454,
      "▁哪个": 10455,
      "不宜": 10456,
      "面部": 10457,
      "发生的": 10458,
      "▁防止": 10459,
      "喜欢我": 10460,
      "是他": 10461,
      "的爱": 10462,
      "结婚了": 10463,
      "原谅": 10464,
      "文学": 10465,
      "白天": 10466,
      "申报": 10467,
      "面临": 10468,
      "办公室": 10469,
      "冲突": 10470,
      "合格": 10471,
      "不出来": 10472,
      "旁边": 10473,
      "▁我想知道": 10474,
      "告诉他": 10475,
      "▁安全": 10476,
      "排出": 10477,
      "画面": 10478,
      "角膜": 10479,
      "颗粒": 10480,
      "▁第四": 10481,
      "检查一下": 10482,
      "▁米": 10483,
      "仲裁": 10484,
      "特色": 10485,
      "会对": 10486,
      "档案": 10487,
      "种类": 10488,
      "美的": 10489,
      "认定": 10490,
      "反对": 10491,
      "的产品": 10492,
      "的是什么": 10493,
      "并且": 10494,
      "▁也没有": 10495,
      "小儿": 10496,
      "养老": 10497,
      "就开始": 10498,
      "差别": 10499,
      "丰富的": 10500,
      "辛苦": 10501,
      "▁收": 10502,
      "大大": 10503,
      "例子": 10504,
      "温柔": 10505,
      "▁严重": 10506,
      "上涨": 10507,
      "因此": 10508,
      "宝贝": 10509,
      "▁妈妈": 10510,
      "堵塞": 10511,
      "少年": 10512,
      "很重要": 10513,
      "受伤": 10514,
      "延长": 10515,
      "最低": 10516,
      "社保": 10517,
      "考研": 10518,
      "▁之前": 10519,
      "就不能": 10520,
      "急急": 10521,
      "明天": 10522,
      "谈谈": 10523,
      "叫做": 10524,
      "的过程": 10525,
      "▁而我": 10526,
      "糖尿病": 10527,
      "▁脑": 10528,
      "少数": 10529,
      "带有": 10530,
      "联合": 10531,
      "▁超": 10532,
      "▁原因": 10533,
      "口的": 10534,
      "是以": 10535,
      "是不能": 10536,
      "国家的": 10537,
      "产业": 10538,
      "商务": 10539,
      "就像": 10540,
      "是非常": 10541,
      "▁实际上": 10542,
      "▁比如说": 10543,
      "▁交": 10544,
      "要去": 10545,
      "下了": 10546,
      "腹泻": 10547,
      "被盗": 10548,
      "▁\n首先": 10549,
      "▁爱情": 10550,
      "可靠": 10551,
      "飞行": 10552,
      "▁顺": 10553,
      "打击": 10554,
      "气的": 10555,
      "消毒": 10556,
      "▁那就是": 10557,
      "不同意": 10558,
      "婚纱": 10559,
      "▁心理": 10560,
      "功效": 10561,
      "开关": 10562,
      "指教": 10563,
      "星座": 10564,
      "▁\n请": 10565,
      "农业": 10566,
      "批准": 10567,
      "标志": 10568,
      "喜欢她": 10569,
      "以外": 10570,
      "克服": 10571,
      "▁马": 10572,
      "供应": 10573,
      "好友": 10574,
      "的规定": 10575,
      "▁\n一般": 10576,
      "合适的": 10577,
      "生殖器": 10578,
      "好还是": 10579,
      "常规": 10580,
      "短期": 10581,
      "▁无法": 10582,
      "好看": 10583,
      "安慰": 10584,
      "把他": 10585,
      "确诊": 10586,
      "都知道": 10587,
      "▁\n求": 10588,
      "或者是": 10589,
      "创新": 10590,
      "外地": 10591,
      "电信": 10592,
      "比较好的": 10593,
      "子宫内膜": 10594,
      "当初": 10595,
      "手的": 10596,
      "▁您好": 10597,
      "在线": 10598,
      "重的": 10599,
      "杀毒软件": 10600,
      "加点": 10601,
      "律师": 10602,
      "湿疹": 10603,
      "要用": 10604,
      "▁不想": 10605,
      "▁南": 10606,
      "▁麻烦": 10607,
      "的办法": 10608,
      "至于": 10609,
      "比较多": 10610,
      "▁]": 10611,
      "▁】": 10612,
      "三天": 10613,
      "下跌": 10614,
      "会很": 10615,
      "居住": 10616,
      "站在": 10617,
      "的治疗方法": 10618,
      "有限公司": 10619,
      "心中": 10620,
      "浏览": 10621,
      "自已": 10622,
      "▁女性": 10623,
      "他就": 10624,
      "初中": 10625,
      "头痛": 10626,
      "我了": 10627,
      "记者": 10628,
      "面膜": 10629,
      "问下": 10630,
      "不停": 10631,
      "多次": 10632,
      "看不到": 10633,
      "▁促进": 10634,
      "人和": 10635,
      "先生": 10636,
      "图标": 10637,
      "▁同样": 10638,
      "▁指": 10639,
      "天下": 10640,
      "天津": 10641,
      "看起来": 10642,
      "要在": 10643,
      "导致的": 10644,
      "了她": 10645,
      "案件": 10646,
      "较高": 10647,
      "▁选": 10648,
      "中毒": 10649,
      "带来的": 10650,
      "自身的": 10651,
      "▁微": 10652,
      "成功的": 10653,
      "少了": 10654,
      "▁只要你": 10655,
      "黄色": 10656,
      "▁李": 10657,
      "▁通": 10658,
      "强调": 10659,
      "担保": 10660,
      "教授": 10661,
      "静脉": 10662,
      "上一": 10663,
      "重装": 10664,
      "▁>": 10665,
      "作业": 10666,
      "武汉": 10667,
      "网址": 10668,
      "注意力": 10669,
      "从小": 10670,
      "处的": 10671,
      "对症": 10672,
      "式的": 10673,
      "重复": 10674,
      "的人生": 10675,
      "公安": 10676,
      "团队": 10677,
      "破裂": 10678,
      "说她": 10679,
      "没事": 10680,
      "治好": 10681,
      "▁要求": 10682,
      "▁\\": 10683,
      "反而": 10684,
      "抗生素": 10685,
      "比如": 10686,
      "毛孔": 10687,
      "液晶": 10688,
      "编辑": 10689,
      "肝脏": 10690,
      "这类": 10691,
      "▁种": 10692,
      "时间的": 10693,
      "重庆": 10694,
      "可以去": 10695,
      "充足": 10696,
      "各自": 10697,
      "和国": 10698,
      "开水": 10699,
      "电路": 10700,
      "相爱": 10701,
      "▁后来我": 10702,
      "▁几乎": 10703,
      "不着": 10704,
      "的功能": 10705,
      "题目": 10706,
      "▁凡": 10707,
      "也在": 10708,
      "几点": 10709,
      "智力": 10710,
      "▁心里": 10711,
      "毛囊": 10712,
      "热量": 10713,
      "个月了": 10714,
      "一半": 10715,
      "复印": 10716,
      "我都": 10717,
      "较为": 10718,
      "了一下": 10719,
      "当中": 10720,
      "步骤": 10721,
      "论文": 10722,
      "▁也可": 10723,
      "怎样才能": 10724,
      "▁\n我想": 10725,
      "作出": 10726,
      "发达": 10727,
      "品质": 10728,
      "就算": 10729,
      "股份": 10730,
      "委员会": 10731,
      "▁冷": 10732,
      "仓库": 10733,
      "和其他": 10734,
      "睡前": 10735,
      "也就是": 10736,
      "增大": 10737,
      "大约": 10738,
      "智慧": 10739,
      "液体": 10740,
      "▁市场": 10741,
      "故意": 10742,
      "石头": 10743,
      "逐步": 10744,
      "信用卡": 10745,
      "乳腺": 10746,
      "依靠": 10747,
      "较多": 10748,
      "那边": 10749,
      "▁亲": 10750,
      "▁知道": 10751,
      "利息": 10752,
      "欣赏": 10753,
      "的那个": 10754,
      "▁认为": 10755,
      "一套": 10756,
      "得多": 10757,
      "承诺": 10758,
      "申购": 10759,
      "前面": 10760,
      "大利": 10761,
      "机体": 10762,
      "护肤品": 10763,
      "就诊": 10764,
      "爱好": 10765,
      "十五": 10766,
      "很高": 10767,
      "找回": 10768,
      "分泌物": 10769,
      "之所以": 10770,
      "▁张": 10771,
      "紊乱": 10772,
      "过长": 10773,
      "还不错": 10774,
      "详细的": 10775,
      "▁写": 10776,
      "便秘": 10777,
      "升高": 10778,
      "厂家": 10779,
      "▁所以你": 10780,
      "优惠": 10781,
      "出售": 10782,
      "成人": 10783,
      "畸形": 10784,
      "的呢": 10785,
      "的女孩": 10786,
      "▁属于": 10787,
      "不愿意": 10788,
      "厨房": 10789,
      "哺乳": 10790,
      "测量": 10791,
      "▁增加": 10792,
      "引导": 10793,
      "打工": 10794,
      "频率": 10795,
      "这样做": 10796,
      "在那里": 10797,
      "的有": 10798,
      "矫正": 10799,
      "领取": 10800,
      "本质": 10801,
      "▁老师": 10802,
      "人为": 10803,
      "女人的": 10804,
      "录取": 10805,
      "提取": 10806,
      "肠胃": 10807,
      "外界": 10808,
      "大学生": 10809,
      "的位置": 10810,
      "▁穿": 10811,
      "了好": 10812,
      "勇气": 10813,
      "回忆": 10814,
      "塑料": 10815,
      "外国": 10816,
      "有一定的": 10817,
      "男人的": 10818,
      "▁是因为": 10819,
      "很多的": 10820,
      "魔兽": 10821,
      "▁如题": 10822,
      "平常": 10823,
      "硬件": 10824,
      "重大": 10825,
      "▁七": 10826,
      "关机": 10827,
      "的名字": 10828,
      "▁进入": 10829,
      "一辈子": 10830,
      "包装": 10831,
      "发布": 10832,
      "对话": 10833,
      "扩大": 10834,
      "扩张": 10835,
      "▁我以前": 10836,
      "军队": 10837,
      "奖励": 10838,
      "强制": 10839,
      "我去": 10840,
      "中国人": 10841,
      "足够的": 10842,
      "▁安": 10843,
      "大陆": 10844,
      "用品": 10845,
      "难度": 10846,
      "▁东": 10847,
      "半月": 10848,
      "推广": 10849,
      "有影响": 10850,
      "许可": 10851,
      "▁人的": 10852,
      "不小心": 10853,
      "的宝宝": 10854,
      "▁第二天": 10855,
      "免疫力": 10856,
      "▁见": 10857,
      "▁根本": 10858,
      "密切": 10859,
      "医生的": 10860,
      "公平": 10861,
      "想着": 10862,
      "提交": 10863,
      "违反": 10864,
      "没有任何": 10865,
      "履行": 10866,
      "开通": 10867,
      "日期": 10868,
      "的任务": 10869,
      "报纸": 10870,
      "视力": 10871,
      "顾客": 10872,
      "▁他就": 10873,
      "▁甲": 10874,
      "一片": 10875,
      "也可": 10876,
      "好\n": 10877,
      "强化": 10878,
      "是无": 10879,
      "行情": 10880,
      "▁也会": 10881,
      "▁火": 10882,
      "▁网上": 10883,
      "为止": 10884,
      "了你": 10885,
      "争取": 10886,
      "客厅": 10887,
      "很久": 10888,
      "淋巴": 10889,
      "集团": 10890,
      "产品的": 10891,
      "▁结": 10892,
      "▁青": 10893,
      "▁推荐": 10894,
      "反射": 10895,
      "失望": 10896,
      "跟着": 10897,
      "食欲": 10898,
      "宫颈糜烂": 10899,
      "▁实": 10900,
      "地上": 10901,
      "精液": 10902,
      "▁所有": 10903,
      "▁下面": 10904,
      "▁两个": 10905,
      "两人": 10906,
      "国债": 10907,
      "每年": 10908,
      "电压": 10909,
      "▁王": 10910,
      "▁结婚": 10911,
      "乳头": 10912,
      "带的": 10913,
      "很小": 10914,
      "流程": 10915,
      "过分": 10916,
      "▁就这样": 10917,
      "毕业生": 10918,
      "不易": 10919,
      "保湿": 10920,
      "外汇": 10921,
      "失去了": 10922,
      "活性": 10923,
      "▁拿": 10924,
      "事物": 10925,
      "卖的": 10926,
      "在这里": 10927,
      "感兴趣": 10928,
      "是多": 10929,
      "百度": 10930,
      "农民": 10931,
      "疾病的": 10932,
      "上课": 10933,
      "服装": 10934,
      "▁这也是": 10935,
      "与人": 10936,
      "▁我已经": 10937,
      "单位的": 10938,
      "▁正常": 10939,
      "▁系统": 10940,
      "不但": 10941,
      "不清": 10942,
      "之处": 10943,
      "去的": 10944,
      "年前": 10945,
      "把你": 10946,
      "键盘": 10947,
      "▁鱼": 10948,
      "地面": 10949,
      "网吧": 10950,
      "▁第一次": 10951,
      "▁肯定": 10952,
      "流通": 10953,
      "贵的": 10954,
      "有一天": 10955,
      "命运": 10956,
      "层次": 10957,
      "的变化": 10958,
      "西方": 10959,
      "什么地方": 10960,
      "人民币": 10961,
      "同一个": 10962,
      "渐渐": 10963,
      "男子": 10964,
      "紧急": 10965,
      "虚拟": 10966,
      "朋友们": 10967,
      "一点点": 10968,
      "的一切": 10969,
      "▁肾": 10970,
      "▁基本": 10971,
      "▁家长": 10972,
      "不安": 10973,
      "会被": 10974,
      "分类": 10975,
      "禁止": 10976,
      "▁加上": 10977,
      "纳税人": 10978,
      "在他": 10979,
      "▁他是": 10980,
      "低于": 10981,
      "干什么": 10982,
      "电磁": 10983,
      "的可能性": 10984,
      "囊肿": 10985,
      "绑定": 10986,
      "▁面对": 10987,
      "成都": 10988,
      "转让": 10989,
      "▁这次": 10990,
      "喜欢他": 10991,
      "出现的": 10992,
      "学校的": 10993,
      "▁胃": 10994,
      "▁饮食": 10995,
      "好好的": 10996,
      "封闭": 10997,
      "摄入": 10998,
      "超市": 10999,
      "附件": 11000,
      "▁我不想": 11001,
      "▁度": 11002,
      "▁象": 11003,
      "一款": 11004,
      "叫什么": 11005,
      "处罚": 11006,
      "整天": 11007,
      "窗口": 11008,
      "违法": 11009,
      "▁变": 11010,
      "▁毫": 11011,
      "▁坚持": 11012,
      "文明": 11013,
      "▁突然": 11014,
      "下午": 11015,
      "切除": 11016,
      "发炎": 11017,
      "洗衣": 11018,
      "的说": 11019,
      "皇帝": 11020,
      "高血压": 11021,
      "的时候就": 11022,
      "事实上": 11023,
      "一岁": 11024,
      "传说": 11025,
      "佛教": 11026,
      "腹部": 11027,
      "▁\n那": 11028,
      "冲动": 11029,
      "受不了": 11030,
      "只会": 11031,
      "太多了": 11032,
      "权益": 11033,
      "▁这种情况": 11034,
      "威胁": 11035,
      "并非": 11036,
      "水中": 11037,
      "膨胀": 11038,
      "住了": 11039,
      "分解": 11040,
      "有无": 11041,
      "燃烧": 11042,
      "▁民": 11043,
      "▁检查": 11044,
      "▁实在": 11045,
      "二手": 11046,
      "干扰": 11047,
      "类型的": 11048,
      "级别": 11049,
      "医院的": 11050,
      "介绍一下": 11051,
      "▁条": 11052,
      "充电": 11053,
      "大于": 11054,
      "会员": 11055,
      "发烧": 11056,
      "学家": 11057,
      "▁我该": 11058,
      "分数": 11059,
      "总结": 11060,
      "用的是": 11061,
      "的颜色": 11062,
      "粘膜": 11063,
      "罗斯": 11064,
      "客户端": 11065,
      "是比较": 11066,
      "银行的": 11067,
      "▁喝": 11068,
      "加以": 11069,
      "\n关于": 11070,
      "爷爷": 11071,
      "诱发": 11072,
      "转化": 11073,
      "▁减少": 11074,
      "寿命": 11075,
      "文件夹": 11076,
      "白带": 11077,
      "等的": 11078,
      "网通": 11079,
      "让孩子": 11080,
      "▁建议您": 11081,
      "▁或者是": 11082,
      "合理的": 11083,
      "隐藏": 11084,
      "▁上面": 11085,
      "▁深": 11086,
      "▁保证": 11087,
      "美好的": 11088,
      "没有了": 11089,
      "血管瘤": 11090,
      "官网": 11091,
      "对人体": 11092,
      "来到": 11093,
      "能在": 11094,
      "▁月经": 11095,
      "▁谁知道": 11096,
      "▁油": 11097,
      "▁曾经": 11098,
      "初恋": 11099,
      "设施": 11100,
      "还原": 11101,
      "提供的": 11102,
      "▁山": 11103,
      "三种": 11104,
      "得不到": 11105,
      "觉的": 11106,
      "越多": 11107,
      "▁你应该": 11108,
      "他在": 11109,
      "吸烟": 11110,
      "瘙痒": 11111,
      "线路": 11112,
      "隆鼻": 11113,
      "骑士": 11114,
      "▁借": 11115,
      "▁完全": 11116,
      "▁他们的": 11117,
      "环节": 11118,
      "美白": 11119,
      "证的": 11120,
      "一个小": 11121,
      "分手了": 11122,
      "第二天": 11123,
      "▁鼻": 11124,
      "反弹": 11125,
      "▁尿": 11126,
      "三角": 11127,
      "对我的": 11128,
      "快的": 11129,
      "流行": 11130,
      "评估": 11131,
      "▁在我": 11132,
      "天性": 11133,
      "岗位": 11134,
      "时机": 11135,
      "活着": 11136,
      "▁有点": 11137,
      "代替": 11138,
      "苦恼": 11139,
      "▁一次": 11140,
      "▁她的": 11141,
      "避孕药": 11142,
      "不当": 11143,
      "成员": 11144,
      "▁他会": 11145,
      "皮肤的": 11146,
      "▁右": 11147,
      "气管": 11148,
      "清晰": 11149,
      "霉素": 11150,
      "颜色的": 11151,
      "▁你说": 11152,
      "▁游戏": 11153,
      "把自己": 11154,
      "睾丸": 11155,
      "▁有的人": 11156,
      "床上": 11157,
      "具体的": 11158,
      "压缩": 11159,
      "▁我看": 11160,
      "问题了": 11161,
      "▁病": 11162,
      "冰箱": 11163,
      "少的": 11164,
      "权的": 11165,
      "旅行": 11166,
      "什么都": 11167,
      "在一": 11168,
      "异性": 11169,
      "暗示": 11170,
      "▁我一直": 11171,
      "不爱": 11172,
      "他会": 11173,
      "密保": 11174,
      "就很": 11175,
      "男孩子": 11176,
      "是最好的": 11177,
      "▁了解": 11178,
      "想去": 11179,
      "用人单位": 11180,
      "三十": 11181,
      "损坏": 11182,
      "版的": 11183,
      "▁要么": 11184,
      "▁利用": 11185,
      "丢失": 11186,
      "楼上": 11187,
      "那天": 11188,
      "形的": 11189,
      "流量": 11190,
      "留在": 11191,
      "的环境": 11192,
      "▁好象": 11193,
      "债务": 11194,
      "成交": 11195,
      "戒指": 11196,
      "整理": 11197,
      "超级": 11198,
      "最好是": 11199,
      "狮子": 11200,
      "祝福": 11201,
      "罗马": 11202,
      "▁大多数": 11203,
      "普通的": 11204,
      "女子": 11205,
      "有关系": 11206,
      "细节": 11207,
      "▁他也": 11208,
      "▁神": 11209,
      "▁基金": 11210,
      "一句话": 11211,
      "刷牙": 11212,
      "导弹": 11213,
      "形状": 11214,
      "法规": 11215,
      "独特": 11216,
      "策略": 11217,
      "▁我都": 11218,
      "的话就": 11219,
      "出汗": 11220,
      "有钱": 11221,
      "饮料": 11222,
      "还是很": 11223,
      "不要太": 11224,
      "水晶": 11225,
      "经典": 11226,
      "▁我只": 11227,
      "一开始": 11228,
      "入睡": 11229,
      "印度": 11230,
      "压迫": 11231,
      "回复": 11232,
      "媒体": 11233,
      "流动": 11234,
      "环保": 11235,
      "贸易": 11236,
      "道路": 11237,
      "酸奶": 11238,
      "陌生": 11239,
      "▁年的": 11240,
      "制品": 11241,
      "激发": 11242,
      "的意思": 11243,
      "警察": 11244,
      "退休": 11245,
      "怀孕了": 11246,
      "▁待": 11247,
      "▁腰": 11248,
      "期待": 11249,
      "舒适": 11250,
      "认可": 11251,
      "都会有": 11252,
      "不算": 11253,
      "也好": 11254,
      "到达": 11255,
      "后会": 11256,
      "审计": 11257,
      "疑问": 11258,
      "▁它是": 11259,
      "主意": 11260,
      "主板": 11261,
      "双眼皮": 11262,
      "恶心": 11263,
      "敌人": 11264,
      "的学生": 11265,
      "力和": 11266,
      "回报": 11267,
      "早泄": 11268,
      "木马": 11269,
      "有什么好": 11270,
      "▁=": 11271,
      "▁成为": 11272,
      "下列": 11273,
      "不吃": 11274,
      "报道": 11275,
      "放到": 11276,
      "高速": 11277,
      "感激": 11278,
      "发生在": 11279,
      "▁刚开始": 11280,
      "人说": 11281,
      "才知道": 11282,
      "有利于": 11283,
      "黑色": 11284,
      "▁多吃": 11285,
      "幸福的": 11286,
      "你所": 11287,
      "倾向": 11288,
      "做一个": 11289,
      "小孩子": 11290,
      "时刻": 11291,
      "生病": 11292,
      "的确": 11293,
      "越大": 11294,
      "喜欢上": 11295,
      "临时": 11296,
      "自学": 11297,
      "以后的": 11298,
      "▁机": 11299,
      "有一种": 11300,
      "盆腔": 11301,
      "面子": 11302,
      "▁左": 11303,
      "座的": 11304,
      "相机": 11305,
      "首页": 11306,
      "▁是什么": 11307,
      "▁考": 11308,
      "▁记得": 11309,
      "初期": 11310,
[...]
